E N 13976235
E ></w> 13972796
- O 13583727
F - 13581260
EN D 13581118
< END 13580764
-O F- 13580764
<END -OF- 13580764
I N 13198358
L IN 13189462
<END-OF- LIN 13188732
<END-OF-LIN E></w> 13188732
t h 6208278
i n 4181167
y o 3399145
a n 3044163
th e</w> 2910303
yo u</w> 2542401
e a 2445665
m e</w> 2439796
o u 2344463
e r 2245690
in g</w> 2221785
i n</w> 2148258
e r</w> 2113519
l l</w> 2076604
t o</w> 1923861
o n 1901158
v e</w> 1673167
h a 1596939
l i 1560390
s t 1514845
n o 1501860
l o 1468150
o n</w> 1459493
a r 1433580
u n 1427431
e s</w> 1420333
e n</w> 1390917
i t</w> 1373490
o r 1371881
e d</w> 1346802
an d</w> 1329849
w a 1314622
e n 1282395
i s</w> 1195022
' s</w> 1144053
r o 1101689
' t</w> 1093271
n 't</w> 1084949
s t</w> 1063769
m y</w> 1041637
n d</w> 1014566
i t 998460
a t</w> 982200
k e</w> 975624
g h 959377
m a 925649
t i 925612
e t</w> 909655
s e</w> 894827
r i 883872
c a 881105
o r</w> 878475
o f</w> 872424
r e 841936
l a 836410
h e</w> 834098
l d</w> 814755
d o</w> 809405
h o 808066
e v 806788
T I 787085
er e</w> 784332
S ></w> 784064
r a 772501
yo u 766637
gh t</w> 751497
e l 744375
th at</w> 736639
A nd</w> 729369
k no 728571
l e</w> 720004
r e</w> 714371
g o 702778
you r</w> 701508
w h 682708
' m</w> 676675
w n</w> 656731
s a 656320
b e 649696
b e</w> 640595
un k</w> 638903
c o 629878
r ea 620715
a ll</w> 616033
e e 613703
o u</w> 604647
a l 597556
u t</w> 596548
c k</w> 592286
Y ou</w> 584332
c h 580849
d e</w> 573836
b a 569933
c e</w> 569345
d o 566974
ha t</w> 564596
on e</w> 559221
d i 550522
s i 539631
ou t</w> 513694
f or</w> 510538
e y</w> 507728
m e 501068
t t 500088
lo ve</w> 499830
u st</w> 496676
d a 487414
w i 477539
it h</w> 472370
w e</w> 472265
t o 467129
c h</w> 463661
s e 463181
l y</w> 460181
h ea 457601
t a 455058
kno w</w> 447510
s o 440624
m i 438734
ev er</w> 429296
u r 427027
T h 426335
q u 425316
b o 418916
n e 403416
wa y</w> 401450
O N 397212
A R 397093
O R 396095
S T 395755
R I 394976
K E 393246
W OR 392762
T L 392530
RI C 392369
S ON 392267
L Y 392230
G EN 392190
WOR D 392110
LY RIC 392085
AR TI 392066
KE Y 392044
SON G 392041
TI TL 392033
GEN R 392033
< LYRIC 392032
< ARTI 392032
< KEY 392032
< TITL 392032
< GENR 392032
<END-OF- SONG 392032
ST ></w> 392032
WORD S></w> 392032
<LYRIC S></w> 392032
<ARTI ST></w> 392032
<KEY WORDS></w> 392032
<TITL E></w> 392032
<GENR E></w> 392032
<END-OF-SONG ></w> 392032
li ke</w> 390119
w ith</w> 388037
u p</w> 387233
n o</w> 384905
' re</w> 384237
s s</w> 378682
b y</w> 378414
g i 363299
go t</w> 362690
s o</w> 358438
' ll</w> 358114
l e 356204
ou ld</w> 354297
g a 351259
W h 349524
t e</w> 345135
ar e</w> 342684
f a 340788
th ing</w> 336618
t s</w> 335236
p a 334555
n a</w> 334495
n i 330419
m o 329263
ca n</w> 329249
s h 328646
t r 327618
th is</w> 326165
d s</w> 320456
j ust</w> 317262
g o</w> 316852
in d</w> 316123
g et</w> 311178
s u 310620
T he</w> 310098
w hat</w> 307118
d e 305639
w or 302623
an t</w> 299381
g h</w> 298225
B ut</w> 293295
e ll</w> 289280
d y</w> 282911
I t</w> 281908
ti me</w> 279279
m or 279004
wa s</w> 277578
on g</w> 276877
f i 274674
u se</w> 273939
c k 272167
do wn</w> 268675
h i 264262
s p 260248
ou nd</w> 259429
' ve</w> 259017
l l 258443
l ea 256801
a n</w> 255629
in g 254188
th e 251088
in e</w> 246849
da y</w> 246352
th er</w> 245078
no w</w> 242674
a s</w> 242278
se e</w> 240929
o d</w> 239816
p p 239315
f or 238936
ou r</w> 238692
ro m</w> 234014
y s</w> 232837
c a</w> 232404
w ant</w> 231496
hea r 231469
n ever</w> 227685
wi ll</w> 225773
kno wn</w> 224784
ou gh</w> 224562
ha ve</w> 223797
wh en</w> 223148
no t</w> 222234
W e</w> 220479
t h</w> 220186
v er 217508
th ey</w> 213274
un known</w> 210650
o h</w> 210555
l a</w> 209540
v i 209010
k ing</w> 208321
f e</w> 206575
ev er 205176
ma n</w> 201914
m p 201040
r u 200483
f rom</w> 198151
l u 196978
an g 194890
ho w</w> 194510
p o 192976
th ere</w> 192789
co me</w> 192342
v er</w> 191529
f e 191353
ee p</w> 191252
f u 188817
s he</w> 188305
ri ght</w> 187807
i d</w> 186698
sa y</w> 186579
h er</w> 185666
p la 185622
ea h</w> 185314
ba ck</w> 185008
ba by</w> 184732
qu e</w> 184671
en t</w> 180381
st a 179690
o w</w> 179205
g e 177758
i ll</w> 177741
S o</w> 177395
ee l</w> 175930
b ut</w> 175560
l et</w> 175479
ma ke</w> 174155
c i 174150
ea r 171891
O h</w> 171486
g u 170761
so me 170557
Wh en</w> 170283
lo o 169835
m b 168732
n a 167606
i f</w> 166761
r y</w> 166170
g on</w> 165903
er s</w> 165099
d er</w> 164855
a b 164548
c on 163650
li fe</w> 163149
a way</w> 163002
mor e</w> 162293
s s 162213
C a 161894
hear t</w> 161320
D o</w> 160598
ni ght</w> 160275
u s</w> 160045
o o 157720
m u 157679
en d</w> 157038
c ould</w> 156842
wh ere</w> 154074
m es</w> 151647
bo dy</w> 151119
f eel</w> 150726
i r 150534
i r</w> 150439
ti on</w> 150213
s h</w> 149745
T hat</w> 148653
w o</w> 148278
p ar 148202
a i</w> 147479
ta ke</w> 147097
in k</w> 146931
h ere</w> 145147
I f</w> 144405
ing s</w> 143846
k i 143597
m s</w> 143560
t er</w> 143253
e y 141449
ne ed</w> 141350
be en</w> 140696
s c 139178
gi r 137976
si de</w> 137089
ea r</w> 136702
t a</w> 134848
t y</w> 134393
r ough</w> 131991
e l</w> 131622
b u 131381
d a</w> 131105
tt le</w> 129070
a ga 128078
t ur 128024
w e 127972
wor ld</w> 127664
p i 126556
n ing</w> 125932
o p 125852
Ca use</w> 125721
lo w</w> 125441
tt er</w> 124781
. .</w> 124227
T o</w> 123313
i ght</w> 122667
S he</w> 122431
y eah</w> 122401
d rea 121508
d ing</w> 121498
v ing</w> 121328
o l 120841
ha r 120381
y ing</w> 118760
ca use</w> 118610
N o</w> 118535
t e 117695
b i 116997
s el 116611
L i 116251
t ed</w> 116144
to o</w> 115914
th rough</w> 115156
M y</w> 114921
ab out</w> 114665
n e</w> 114601
I n</w> 114498
aga in</w> 114011
d er 113450
' d</w> 113012
g e</w> 112510
l ing</w> 112165
m a</w> 111948
st ar 111471
wa ys</w> 111408
A ll</w> 111083
t ra 110834
l es</w> 110810
M a 110062
li ttle</w> 109822
go od</w> 109742
th ink</w> 109439
ro ck</w> 109302
on ly</w> 108752
wa n</w> 108602
co m 108589
u e</w> 108414
. ..</w> 108313
t ell</w> 107852
gi ve</w> 107315
s ha 107024
so me</w> 106932
ou n 106779
p u 106638
p e 106601
N ow</w> 106579
ey es</w> 106426
gir l</w> 106057
an ce</w> 105808
Th ere</w> 105580
S o 105562
w ould</w> 105517
k in</w> 105117
b rea 105083
m on 104213
a m</w> 103620
ar ound</w> 103369
y thing</w> 103250
o ver</w> 102839
o ther</w> 102537
t u 101156
l s</w> 100694
st o 100253
m ind</w> 100140
ha d</w> 99996
C o 99796
W hat</w> 99247
h is</w> 98921
f f</w> 98897
y a</w> 98678
st ill</w> 98532
l ong</w> 97325
sa id</w> 97239
J ust</w> 97129
wh o</w> 97088
t ing</w> 96803
a l</w> 96084
l ly</w> 95310
p ro 94568
H e</w> 94558
b ea 94453
the m</w> 94350
ne w</w> 94137
p re 94106
f t</w> 93063
w ere</w> 92850
k eep</w> 92062
li ve</w> 91919
Th ey</w> 91305
w s</w> 91213
o t</w> 90991
li ght</w> 90684
m an 90674
f ind</w> 90399
i l</w> 90270
sel f</w> 90028
e st 89610
f ri 89171
wa l 89077
ho me</w> 88919
re e</w> 87872
v es</w> 87604
c u 87557
di d</w> 87197
p s</w> 86877
e x 86761
li e 86759
s ed</w> 85350
o ld</w> 85165
u n</w> 84750
c ar 84603
al ways</w> 84449
wh y</w> 84199
di e</w> 84188
Th is</w> 83760
b r 83339
tr y</w> 82757
d ar 82622
i l 81856
it e</w> 81823
fe el 81741
B a 81617
p er 81274
c lo 80855
th ings</w> 80699
E ver 80645
L et</w> 80374
s k 80282
t on 80182
a m 79886
B e 79860
e m</w> 79294
l o</w> 78804
a c 78592
loo k</w> 78462
s ho 78457
d ea 78211
p e</w> 78165
t al 77918
v o 77912
' Cause</w> 77522
g one</w> 77487
o ff</w> 77242
g r 76982
th en</w> 76851
on s</w> 76847
ear s</w> 76440
s on</w> 76243
ever y</w> 76021
hea d</w> 75944
w o 75829
b le</w> 75735
r ong</w> 75178
t er 74987
d r 74799
ro w</w> 74643
s ou 74409
b la 74389
s ing</w> 74067
h an 73931
t ri 73848
k es</w> 73678
for e</w> 73662
b ro 73601
e ss</w> 72767
e st</w> 72512
hea r</w> 72133
ou s</w> 71552
mu ch</w> 71484
m i</w> 71072
no thing</w> 70910
hi m</w> 70330
k s</w> 70293
W ell</w> 70212
be tter</w> 70128
s w 69844
ou ght</w> 69701
g ra 69630
lie ve</w> 69544
F or</w> 69281
wh i 69140
in to</w> 68958
ch ang 68818
m m 68703
v a 68418
st and</w> 67857
b lu 67654
t ch</w> 67608
c ra 67603
g g 67295
Y our</w> 67024
W ith</w> 66740
c ha 66675
v e 66607
rea lly</w> 66574
L o 66343
l on 66272
el y</w> 66187
th an</w> 66074
al one</w> 65614
S a 65347
ho ld</w> 65232
ti mes</w> 65214
fa ce</w> 64800
c or 64745
v en</w> 64677
be lieve</w> 64676
ha pp 64587
mb er</w> 64552
m in 64485
c e 64050
ch i 63877
ou r 63746
b ur 63626
j o 63592
So me 63503
o wn</w> 63400
fu l</w> 63218
ca ll</w> 63068
it y</w> 62716
s l 62538
Y eah</w> 62129
s ee 61908
d u 61822
a f 61793
H ow</w> 61636
qu i 61410
y o</w> 61298
op le</w> 61250
ma de</w> 60885
t u</w> 60863
it s</w> 60719
tur n</w> 60329
f f 60113
lea ve</w> 59936
t en 59418
har d</w> 59050
the se</w> 58987
T a 58666
ton ight</w> 58553
f all</w> 58381
ha s</w> 58171
some thing</w> 58129
c t</w> 58072
an s</w> 57866
gh ts</w> 57727
pla ce</w> 57506
sta y</w> 57435
be fore</w> 57408
sh ould</w> 57205
ev en</w> 57169
wi th 57159
in s</w> 57131
ever ything</w> 57083
la st</w> 56935
z e</w> 56932
y e</w> 56680
in side</w> 56540
c es</w> 56526
le ft</w> 56462
re e 56461
m y 56441
m ine</w> 56252
sto p</w> 56224
f lo 55968
go ing</w> 55780
lea se</w> 55711
h u 55648
v in</w> 55422
ru n</w> 55325
d ed</w> 55274
h e 54526
o se</w> 54464
Co me</w> 54421
w ar 54260
I s</w> 54215
w an 53881
Li ke</w> 53813
p ri 53775
b lo 53745
j a 53599
ra in</w> 53596
n u 53510
m ar 53346
drea m</w> 53346
the ir</w> 53234
sa me</w> 52895
p ut</w> 52858
a s 52843
bo y</w> 52652
n ed</w> 52433
su n</w> 52394
ti l</w> 52240
rea l</w> 52105
f al 52057
an other</w> 52047
un der 51920
m en 51883
h and</w> 51728
c ro 51719
m ent</w> 51680
W a 51516
tr ue</w> 51458
v ed</w> 51092
a u 50995
pe ople</w> 50940
d en</w> 50914
s ong</w> 50859
O n</w> 50834
en ds</w> 50747
y body</w> 50618
w rong</w> 50485
ga s</w> 50439
j u 50311
d es</w> 50294
h el 50285
f oo 50228
st r 50228
H a 50064
we et</w> 49977
s er 49863
na me</w> 49817
b l 49724
le ss</w> 49616
Wh y</w> 49453
k en</w> 49431
en ce</w> 49397
y in</w> 49106
sou l</w> 48970
s how</w> 48918
it ing</w> 48773
Ba by</w> 48646
you r 48594
s y</w> 48426
w ho 48321
d one</w> 48291
st or 48266
lo st</w> 48242
r ed</w> 48172
s si 47916
ea n</w> 47840
Wh ere</w> 47801
w on 47771
z y</w> 47560
s mi 47101
tt ing</w> 47029
er o</w> 46729
mon ey</w> 46653
st i 46531
g s</w> 46521
f ree</w> 46422
da ys</w> 46042
wal k</w> 46008
e s 45983
ro o 45963
h ur 45607
t ou 45581
ne ss</w> 45538
chang e</w> 45427
w in 45264
hi gh</w> 45112
k ed</w> 45084
pla y</w> 45075
c ry</w> 45043
c ho 44945
su re</w> 44905
s en 44887
o k</w> 44870
A s</w> 44821
t ch 44596
G od</w> 44568
ba d</w> 44419
d ri 44408
Th en</w> 44371
c are</w> 44330
a d</w> 44245
st e</w> 44218
st e 44192
my self</w> 44183
ck s</w> 44162
f in 44070
ll s</w> 44058
with out</w> 43978
r un 43920
b or 43778
' cause</w> 43747
to wn</w> 43724
th ought</w> 43702
sk y</w> 43615
Wh o</w> 43208
fa r</w> 43185
t ro 43058
me mber</w> 42989
i ch</w> 42915
ti ll</w> 42909
fi re</w> 42902
s ur 42880
t wo</w> 42715
d ro 42622
l an 42596
tr u 42474
e mp 42473
ca me</w> 42360
ll ing</w> 42253
blu e</w> 42243
u p 42209
G ot</w> 42196
w ell</w> 42195
par t</w> 42151
tu re</w> 42110
N o 41984
a r</w> 41919
ge ther</w> 41846
a h</w> 41826
c an 41826
y be</w> 41746
brea k</w> 41728
s in 41639
t in</w> 41636
c he</w> 41586
p ra 41565
C h 41536
c r 41491
co mes</w> 41454
a d 41388
s weet</w> 41357
o d 41223
ss ed</w> 41165
feel ing</w> 40984
rea dy</w> 40922
un g</w> 40905
S e 40890
m ust</w> 40850
k e 40814
g gas</w> 40794
en ough</w> 40720
drea ms</w> 40715
O ne</w> 40481
s es</w> 40408
Ta ke</w> 40408
en t 40364
ch e 40135
c oun 40097
han ds</w> 39988
m er 39968
co mp 39918
p r 39873
g re 39819
H ey</w> 39799
Lo ve</w> 39720
pa in</w> 39662
fri end</w> 39583
f ound</w> 39476
l in</w> 39446
d an 39431
w ing</w> 39352
y _ 39321
o l</w> 39147
d ance</w> 39138
S t 39070
com ing</w> 39038
c ri 39013
p h 38994
b ye</w> 38934
ma s</w> 38907
po p</w> 38845
r ound</w> 38740
wor ds</w> 38559
ll ed</w> 38531
l ou 38483
b el 38441
bi g</w> 38418
be st</w> 38380
i ce</w> 38363
to gether</w> 38358
fi r 38287
n y</w> 38215
T o 37961
mi ght</w> 37942
star t</w> 37941
an do</w> 37720
D i 37711
d en 37619
st er</w> 37580
l ine</w> 37568
v en 37457
th ose</w> 37382
Q ue</w> 37324
to ld</w> 37274
' em</w> 37068
for ever</w> 37065
Q u 36850
some one</w> 36763
f r 36723
whi le</w> 36533
ee p 36494
s on 36465
an y 36411
k new</w> 36406
u sed</w> 36373
li e</w> 36311
tal k</w> 36272
i m</w> 36264
lo se</w> 36126
b le 36067
R o 36045
ri de</w> 36004
ta l</w> 35977
man y</w> 35857
U n 35852
R e 35774
co ld</w> 35774
or d</w> 35711
s or 35693
i ve</w> 35591
wa it</w> 35557
f ly</w> 35481
th in</w> 35423
b out</w> 35328
f la 35301
ho pe</w> 35297
L oo 35272
ki ss</w> 35229
st ra 35130
F rom</w> 35042
wa iting</w> 35039
ni ggas</w> 35020
do es</w> 34984
d on 34978
re member</w> 34912
u r</w> 34793
on es</w> 34751
an y</w> 34668
G et</w> 34654
j e 34621
wi sh</w> 34464
la u 34428
sl eep</w> 34420
do or</w> 34356
ck in</w> 34330
b ra 34262
p lease</w> 34224
ea t</w> 34218
se en</w> 34166
h ey</w> 34164
a y</w> 33967
g er</w> 33773
I n 33746
i se</w> 33716
l ed</w> 33599
d i</w> 33457
st an 33405
T ell</w> 33282
t es</w> 33251
t i</w> 33221
m en</w> 33217
st re 33196
m o</w> 33136
t el 33130
ch t</w> 33115
m ean</w> 33087
s a</w> 33035
bea u 32989
f ol 32889
sh i 32878
sh ine</w> 32836
fir st</w> 32828
go od 32806
m ing</w> 32742
ea ch</w> 32741
t en</w> 32737
s in</w> 32694
go es</w> 32681
br ing</w> 32643
sp e 32635
pp ed</w> 32615
n s</w> 32573
fri ends</w> 32561
ma y</w> 32517
bla ck</w> 32509
h ou 32497
ck ed</w> 32414
la te</w> 32354
dea d</w> 32332
mo ve</w> 32295
li es</w> 32216
th in 32208
lon ely</w> 32056
your self</w> 32051
lea r 32003
cra zy</w> 31938
o s</w> 31859
c tion</w> 31847
in t</w> 31642
d u</w> 31629
yo ne</w> 31605
clo se</w> 31563
mor ning</w> 31479
s i</w> 31397
h ind</w> 31389
ga me</w> 31322
i es</w> 31293
L ord</w> 31282
hel p</w> 31245
smi le</w> 31183
A l 31049
m p</w> 30797
O r</w> 30739
loo king</w> 30728
w er</w> 30715
d ra 30652
si c</w> 30649
gr ound</w> 30602
h on 30515
mm er</w> 30422
wo man</w> 30412
el se</w> 30389
N ever</w> 30357
t or 30324
s an 30296
on ce</w> 30278
s et</w> 30185
ro ad</w> 30173
happ y</w> 30162
Ever y</w> 30157
wor k</w> 30126
k ind</w> 30085
hear d</w> 30058
h it</w> 29959
C an</w> 29955
si l 29899
r ing</w> 29898
A n 29771
bea t</w> 29756
ar ms</w> 29672
n er</w> 29663
tou ch</w> 29598
wa tch</w> 29523
l and</w> 29513
roo m</w> 29445
s er</w> 29434
h y 29401
i g 29391
st en</w> 29386
C a</w> 29287
ge tting</w> 29237
m ed</w> 29192
un der</w> 29181
d eep</w> 29139
who le</w> 29071
O f</w> 29064
el s</w> 29050
be hind</w> 29037
W i 28977
b ri 28955
fi ght</w> 28882
sta r</w> 28859
D e 28848
j e</w> 28797
kno ws</w> 28770
s it 28757
M i 28757
to p</w> 28723
under stand</w> 28654
h or 28460
la y</w> 28434
tt y</w> 28412
s ing 28374
M e</w> 28351
b ar 28277
rea t</w> 28261
t ears</w> 28234
b ir 28227
d le</w> 28152
for get</w> 28135
y ears</w> 28091
to day</w> 28040
ma kes</w> 28013
t _ 27986
ro ll</w> 27953
g ar 27934
dar k</w> 27934
l la 27805
to ok</w> 27800
h a</w> 27767
yo ung</w> 27754
ri st 27753
am or</w> 27746
un d</w> 27702
B o 27644
ti ons</w> 27599
ea k</w> 27567
p en 27549
s un 27477
D o 27471
al right</w> 27460
l li 27420
mo on</w> 27408
li ving</w> 27381
ma tter</w> 27318
st u 27259
c re 27249
si on</w> 27249
ss ing</w> 27232
n in</w> 27191
O n 27191
S u 27163
ff er 27150
M o 27133
the _ 27057
c la 26946
o oh</w> 26914
H ere</w> 26847
s ound</w> 26779
s li 26773
hou se</w> 26771
lo t</w> 26770
g la 26759
star s</w> 26714
a tion</w> 26652
n ee 26564
y es</w> 26407
ch ance</w> 26380
ea sy</w> 26379
op en</w> 26334
ti ful</w> 26322
L a</w> 26298
ha te</w> 26278
or e</w> 26268
mu sic</w> 26263
w ind</w> 26249
m on</w> 26225
di s 26093
th ough</w> 26089
T i 26035
w in</w> 26010
b ed</w> 25996
L a 25934
el e 25928
d in</w> 25854
un a</w> 25781
l ' 25763
wa ke</w> 25693
H o 25649
f ine</w> 25637
sa w</w> 25500
ho l 25472
al ong</w> 25415
no body</w> 25398
u m</w> 25307
el t</w> 25211
c on</w> 25203
g en 25158
c o</w> 25116
p er</w> 24904
s mo 24859
tru th</w> 24858
lo s</w> 24845
foo l</w> 24808
mo st</w> 24754
a pp 24753
al ly</w> 24713
bro ken</w> 24700
A re</w> 24696
gir ls</w> 24662
si g 24633
N e 24627
af ter</w> 24586
p or</w> 24557
o h 24517
blo od</w> 24490
gh t 24464
W ill</w> 24393
mi ss</w> 24363
l in 24337
an g</w> 24283
a bo 24273
c lea 24252
an ything</w> 24246
b er 24218
Y o</w> 24185
i on</w> 24173
da s</w> 24135
c ity</w> 24117
lo r 24106
g ro 24105
p ea 24102
i st</w> 24097
u h</w> 24039
th ou 24007
la s</w> 24007
st ea 23902
me mor 23882
a live</w> 23850
th er 23837
m b</w> 23809
ca r</w> 23772
So me</w> 23753
pp in</w> 23714
w ent</w> 23713
an k</w> 23690
ver y</w> 23689
wor d</w> 23686
st rong</w> 23658
a te</w> 23629
some body</w> 23626
s ch 23618
beau tiful</w> 23609
Y es</w> 23602
a ir</w> 23538
hur t</w> 23498
Se e</w> 23467
d ev 23434
as k</w> 23384
c ing</w> 23360
ho t</w> 23354
li ghts</w> 23346
r en 23322
f o 23311
h un 23293
ta in</w> 23291
al l 23282
tr ying</w> 23238
a - 23216
mor row</w> 23210
a i 23202
do w</w> 23174
hea ven</w> 23128
x t</w> 23114
G ir 23085
stre et</w> 23068
fal ling</w> 23061
d ou 23046
ch ing</w> 23016
hi de</w> 22994
p t</w> 22958
won der</w> 22908
wa r</w> 22903
d ge</w> 22898
ho p</w> 22890
fe et</w> 22887
good bye</w> 22862
c ou 22861
ever y 22835
tt in</w> 22821
run ning</w> 22721
G ive</w> 22685
gu n</w> 22664
on t</w> 22651
ar d</w> 22617
un e</w> 22590
wh ite</w> 22558
qu e 22538
s _ 22508
se a</w> 22461
tr ou 22451
w r 22446
sh ed</w> 22380
c ur 22356
be g 22355
M ar 22352
J e 22318
ga ve</w> 22305
gu ess</w> 22302
wa ter</w> 22276
P a 22272
an i 22242
y - 22141
pa s</w> 22114
v a</w> 22093
rist mas</w> 22091
rea son</w> 22042
c er 22036
i mp 22027
c y</w> 22024
u ght</w> 22021
bor n</w> 21984
wan ted</w> 21976
A i</w> 21931
su s</w> 21930
d _ 21890
abo ve</w> 21854
con tro 21838
ne xt</w> 21814
y ed</w> 21798
c ru 21749
c lu 21651
see ms</w> 21622
f ear</w> 21559
ever ybody</w> 21543
pro mi 21532
L e 21530
tri ed</w> 21507
G o 21497
str ang 21447
e se</w> 21382
P ar 21379
ou t 21368
Ma ke</w> 21361
N ot</w> 21348
st a</w> 21296
Ma ybe</w> 21236
un til</w> 21214
b a</w> 21154
par ty</w> 21053
' all</w> 21006
d re 20984
our s</w> 20941
hi gh 20909
sc ar 20891
s and</w> 20873
r a</w> 20861
mo s</w> 20830
ck ing</w> 20803
g a</w> 20786
i e</w> 20733
bo ys</w> 20730
pa st</w> 20719
lo ved</w> 20704
u l 20687
pp ing</w> 20663
mi d 20589
fu ll</w> 20566
flo or</w> 20559
rea m</w> 20535
pre tty</w> 20515
di es</w> 20500
e _ 20498
ma ybe</w> 20485
ha t 20451
fa st</w> 20451
we en</w> 20446
mo ment</w> 20436
so on</w> 20418
Loo k</w> 20338
en s</w> 20323
re st</w> 20321
f un 20249
i le</w> 20177
f le 20144
b it 20131
c li 20113
go in</w> 20090
b it</w> 20062
t re 20047
d dy</w> 20037
c ed</w> 20025
s y 19965
st ed</w> 19952
Ever ybody</w> 19944
up on</w> 19941
be cause</w> 19939
coun try</w> 19929
to morrow</w> 19891
ll in</w> 19890
stor y</w> 19876
di ffer 19818
rea li 19796
sh in 19785
k ill</w> 19772
ch es</w> 19760
Gir l</w> 19755
ma g 19698
ha l 19656
S h 19567
dea th</w> 19548
sa ve</w> 19533
bur n</w> 19528
rea d</w> 19523
a part</w> 19507
t ween</w> 19499
m ou 19499
p or 19494
P u 19480
a va 19466
d on</w> 19412
s pa 19409
i la 19402
thin king</w> 19400
chi ld</w> 19349
ra id</w> 19291
ge ts</w> 19286
sh ing</w> 19273
ssi on</w> 19272
s ea 19262
hi p 19256
G o</w> 19242
ph one</w> 19169
feel s</w> 19161
p a</w> 19148
g lo 19126
en e</w> 19114
th ers</w> 19078
K eep</w> 19045
dar k 19038
R i 19029
te mp 19028
T r 18981
w ea 18943
contro l</w> 18911
ra in 18896
li sten</w> 18875
y e 18828
me tal</w> 18828
d ' 18739
ey e</w> 18739
fu n</w> 18684
R a 18654
G e 18617
Be cause</w> 18601
F a 18595
r hy 18552
i a</w> 18548
Sa y</w> 18494
I ch</w> 18489
su ch</w> 18454
b t</w> 18434
pi e 18427
de st 18422
en ing</w> 18415
tt a</w> 18401
s it</w> 18391
er a</w> 18307
F or 18285
lo w 18278
o c 18250
O oh</w> 18242
P lease</w> 18228
di r 18194
be ing</w> 18109
t wi 18102
st er 18062
me et</w> 18056
pa y</w> 18027
sa d</w> 18020
tt e</w> 17994
t or</w> 17975
J a 17970
B u 17917
any more</w> 17856
Some times</w> 17773
y 'all</w> 17771
t in 17761
see m</w> 17759
s low</w> 17753
per fe 17752
ti ght</w> 17732
lo ving</w> 17729
ee ps</w> 17727
u x</w> 17710
S i 17703
m ma</w> 17664
af raid</w> 17649
k a 17613
ea th</w> 17566
ss es</w> 17539
S ha 17538
No thing</w> 17507
bo o 17487
li ps</w> 17480
n i</w> 17475
en d 17473
wa tch 17469
ha ir</w> 17462
ste p</w> 17453
a tt 17439
' est</w> 17439
ver s</w> 17415
A t</w> 17402
P o 17377
ll a</w> 17369
st ree 17360
Ch ristmas</w> 17356
la dy</w> 17329
ó n</w> 17315
t an 17304
H ea 17304
c lou 17282
p lan 17257
hip _ 17170
hip_ hop</w> 17169
co ol</w> 17152
M e 17143
ta kes</w> 17135
m it</w> 17128
w it</w> 17110
lau gh 17103
i re</w> 17069
H i 16962
won der 16953
a ge</w> 16904
ri se</w> 16881
B i 16879
ca l</w> 16877
da d</w> 16874
d ru 16866
wi ld</w> 16866
an sw 16854
S ta 16849
e t 16839
en ed</w> 16831
d ear</w> 16823
' bout</w> 16821
ma l</w> 16785
te st</w> 16775
S i</w> 16772
ch il 16748
qu i</w> 16742
sa ys</w> 16726
ti red</w> 16708
E n 16687
Ever ything</w> 16680
a z 16658
be tween</w> 16625
Wh ile</w> 16623
do m</w> 16611
blu es</w> 16603
vo ice</w> 16591
st ing</w> 16574
no n</w> 16574
tur ned</w> 16568
m et</w> 16565
do ing</w> 16552
su mmer</w> 16527
ti c</w> 16485
mi lli 16483
ga r</w> 16466
ri ver</w> 16460
ila ble</w> 16454
ava ilable</w> 16391
co l 16386
P e 16356
Ha ve</w> 16354
di o</w> 16338
z a</w> 16328
f elt</w> 16325
ck y</w> 16319
I ' 16303
com in</w> 16292
sha ke</w> 16272
a li 16265
do s</w> 16255
hear ts</w> 16224
de m</w> 16212
stan ding</w> 16197
b low</w> 16167
no t_ 16145
D id</w> 16144
T ur 16137
not_ available</w> 16137
sp er 16123
sin ce</w> 16115
k in 16095
f l 16095
ma ma</w> 16095
po wer</w> 16068
y er</w> 16059
w ee 16020
ni cht</w> 16000
s ki 15985
o ver 15979
eep ing</w> 15951
de l</w> 15910
tt er 15906
stree ts</w> 15906
pi c 15897
dr en</w> 15894
c har 15864
mo ther</w> 15864
ou l 15859
D e</w> 15842
go ld</w> 15836
hon ey</w> 15827
E ven</w> 15824
th ree</w> 15822
brea th</w> 15799
k ne 15786
C u 15758
J u 15755
s kin</w> 15738
f re 15724
S p 15707
J e</w> 15680
B e</w> 15665
ro ss</w> 15605
de ci 15596
p lu 15595
ear th</w> 15584
u te</w> 15569
your s</w> 15559
h h</w> 15552
Th ese</w> 15547
fol low</w> 15541
k o 15523
no thin</w> 15509
On ly</w> 15508
bl ind</w> 15501
com o</w> 15486
i s 15470
lear n</w> 15470
f an 15464
ma king</w> 15460
k er</w> 15431
g ri 15416
t ly</w> 15390
Ti me</w> 15388
wa ll</w> 15378
P ut</w> 15355
Je sus</w> 15351
ri ed</w> 15349
tra in</w> 15305
pea ce</w> 15293
h er 15271
n ear</w> 15215
v ol 15196
wan ts</w> 15169
fa mi 15160
K i 15154
sor ry</w> 15154
b an 15151
vi da</w> 15136
clea r</w> 15134
bur ning</w> 15101
F e 15057
g reat</w> 15050
lo ver</w> 15036
á s</w> 15023
D own</w> 15016
rea ch</w> 15007
st ri 15000
dro p</w> 14969
M on 14948
O ur</w> 14947
gu e</w> 14904
li ves</w> 14892
f ing 14878
S till</w> 14860
star ted</w> 14838
W o</w> 14824
y et</w> 14811
dr ink</w> 14805
stra ight</w> 14762
lo r</w> 14749
T H 14725
R ea 14711
d ly</w> 14649
ar y</w> 14649
bo th</w> 14649
it a</w> 14640
t on</w> 14634
oun ds</w> 14606
s ma 14597
ni ghts</w> 14593
g row</w> 14570
c rea 14569
c ti 14534
wal king</w> 14523
sp eak</w> 14516
a g 14515
b en 14515
L ea 14515
b b 14482
sp o 14482
pra y</w> 14474
W or 14452
Be fore</w> 14419
en g 14410
hat ever</w> 14402
j a</w> 14371
b right</w> 14364
fr ont</w> 14360
b li 14351
H old</w> 14336
su pp 14302
ni ce</w> 14300
do ws</w> 14295
wor th</w> 14290
gi c</w> 14287
ca tch</w> 14283
ever yone</w> 14273
m oun 14260
s qu 14247
cro ss</w> 14225
N i 14213
pa ss</w> 14207
c ut</w> 14204
y ear</w> 14199
tal king</w> 14199
k y</w> 14180
qui ero</w> 14173
ki ds</w> 14162
i gh 14148
ca lling</w> 14148
N a 14140
m in</w> 14112
sho t</w> 14093
th row</w> 14092
lo vin</w> 14082
W ould</w> 14064
H is</w> 14058
v el 14056
Li fe</w> 14053
no s</w> 14031
differ ent</w> 14025
ch ed</w> 14019
chil dren</w> 14019
lea d</w> 14000
ca lled</w> 13962
dri ve</w> 13947
C on 13939
jo y</w> 13899
* * 13892
or s</w> 13890
f ra 13854
si ck</w> 13853
C ould</w> 13836
B la 13835
bla me</w> 13811
k ey</w> 13806
perfe ct</w> 13789
ang el</w> 13787
Ã © 13786
ca l 13786
c s</w> 13772
c le</w> 13768
so l 13759
se con 13731
un i 13726
lo ves</w> 13720
W as</w> 13711
s ear 13698
f ree 13691
par a</w> 13687
mou th</w> 13646
tr ust</w> 13629
ma d</w> 13603
sp i 13589
h - 13587
ck et</w> 13587
in a</w> 13564
ci al</w> 13564
b en</w> 13558
Ne w</w> 13535
ra p</w> 13497
W al 13489
ge ttin</w> 13475
ing ing</w> 13451
un s</w> 13394
go d</w> 13384
me ant</w> 13381
st y 13380
ho od</w> 13355
ac ross</w> 13355
ta king</w> 13354
j ' 13353
i c</w> 13284
f ell</w> 13279
qu est 13255
E t</w> 13252
d ers</w> 13244
si mp 13237
g en</w> 13229
some times</w> 13213
D a 13207
sp ir 13204
ho p 13176
ca ught</w> 13174
h r</w> 13170
s la 13157
M u 13153
emp ty</w> 13152
pu ll</w> 13150
d ans</w> 13122
f li 13119
a mon 13105
r an 13100
t y 13082
c en 13069
T u</w> 13061
m el 13061
z ed</w> 13048
wor ry</w> 13045
c er</w> 12984
w el 12978
G on</w> 12974
ro r</w> 12966
G u 12965
b all</w> 12942
tr o</w> 12928
cro w 12922
k eeps</w> 12915
sc ho 12909
U nd</w> 12904
st s</w> 12866
mi r</w> 12858
fu ture</w> 12848
i ls</w> 12846
par a 12843
in ce</w> 12827
do g</w> 12815
si ght</w> 12815
e in</w> 12803
b al 12792
ã o</w> 12771
k a</w> 12769
loo kin</w> 12754
M an</w> 12745
Un til</w> 12709
bro ke</w> 12686
in st</w> 12680
s u</w> 12677
ra ce</w> 12667
g li 12654
Y a</w> 12627
kne es</w> 12605
z z 12600
B y</w> 12582
promi se</w> 12581
Ã ©</w> 12561
est er 12546
t ea 12542
p our</w> 12537
feel in</w> 12504
gg a</w> 12486
ch o</w> 12482
d - 12473
v y</w> 12459
m m</w> 12454
hol ding</w> 12450
dar ling</w> 12416
gre en</w> 12415
st one</w> 12407
er a 12405
win dow</w> 12403
bo w</w> 12402
out side</w> 12398
p le</w> 12397
Th rough</w> 12394
sp end</w> 12378
mi r 12372
l er</w> 12369
an a</w> 12363
er i 12351
hal f</w> 12345
brea the</w> 12334
be li 12331
di sa 12322
cr ying</w> 12319
sig n</w> 12319
mi sta 12282
sh es</w> 12282
sa ying</w> 12279
fa ith</w> 12278
l ar 12273
en n</w> 12259
A h</w> 12253
ll er</w> 12228
Some thing</w> 12228
P i 12206
nee ds</w> 12195
V i 12135
milli on</w> 12123
tr a</w> 12099
dark ness</w> 12093
ta ste</w> 12086
I m</w> 12029
mb le</w> 12027
O ut</w> 12014
' til</w> 12003
war m</w> 11999
clu b</w> 11989
T ill</w> 11971
th ro 11969
ci r 11958
wi e</w> 11957
it ed</w> 11929
t ar 11925
mi ch</w> 11923
da ddy</w> 11918
vi e 11915
h ang 11904
d in 11892
í a</w> 11876
z u</w> 11858
al s</w> 11857
smo ke</w> 11849
al ready</w> 11843
C ar 11833
b er</w> 11826
no r 11813
To o</w> 11812
sing ing</w> 11793
car ry</w> 11781
in ning</w> 11778
bel ong</w> 11756
J o 11748
a _ 11743
P re 11741
tr yin</w> 11714
rea k</w> 11692
au f</w> 11690
thou sand</w> 11678
bro ther</w> 11665
j o</w> 11649
pro ble 11648
trou ble</w> 11648
p l 11642
pu e 11642
dan cing</w> 11637
o f 11634
Tur n</w> 11622
fu ckin</w> 11606
in ess</w> 11598
o k 11597
W ho 11584
no where</w> 11576
wi de</w> 11545
gu y</w> 11537
shi p</w> 11523
H el 11516
l y 11516
dev il</w> 11504
o o</w> 11502
lau gh</w> 11500
d ying</w> 11497
vi e</w> 11480
Th ough</w> 11474
ci ous</w> 11467
w ings</w> 11426
ta n</w> 11424
loo ked</w> 11423
it t 11417
sha ll</w> 11410
de si 11404
memor y</w> 11401
de ser 11392
b on 11376
g es</w> 11370
Wi th 11370
s ent</w> 11367
ab le</w> 11364
f our</w> 11362
f low</w> 11357
lea ving</w> 11355
w ed</w> 11302
sur vi 11280
i m 11275
er es</w> 11268
With out</w> 11254
memor ies</w> 11251
un k 11242
i mag 11237
st ru 11231
b and</w> 11229
bu il 11228
bu y</w> 11226
el la</w> 11216
R ight</w> 11214
A n</w> 11198
E n</w> 11179
sty le</w> 11178
ha n</w> 11166
t ear</w> 11161
chang ed</w> 11149
answ er</w> 11145
bir d</w> 11131
sh or 11129
e - 11088
s sa 11073
sw ee 11066
r es</w> 11065
t ree</w> 11042
s end</w> 11040
gi ving</w> 11039
en to</w> 11038
nu mber</w> 11030
secon d</w> 11020
J ' 11012
v or 11008
fi ed</w> 11008
loo ks</w> 10990
w ine</w> 10981
z i 10977
a t 10972
s ons</w> 10968
la r</w> 10960
scar ed</w> 10951
aga inst</w> 10944
gu i 10943
P ro 10940
ss in</w> 10922
m er</w> 10921
v ely</w> 10915
w ear</w> 10914
tur ning</w> 10893
ti s 10879
lou d</w> 10877
si e</w> 10871
wal ked</w> 10865
St ar 10864
gh ter</w> 10857
in ed</w> 10852
fi ll</w> 10847
sha re</w> 10845
c ted</w> 10844
fin ally</w> 10835
sho es</w> 10829
mo i</w> 10818
Ba ck</w> 10788
th es</w> 10785
plu s</w> 10776
ma gic</w> 10771
est a</w> 10755
ang e</w> 10706
mi les</w> 10702
ester day</w> 10702
fami ly</w> 10695
sha me</w> 10673
t us</w> 10661
it ch</w> 10654
A no 10651
with in</w> 10635
war d</w> 10631
di st 10624
I ts</w> 10616
l le</w> 10610
to do</w> 10595
c i</w> 10581
p ur 10574
d ness</w> 10572
e u</w> 10564
el le</w> 10557
en e 10553
a ma 10550
scho ol</w> 10550
ac t</w> 10541
ch an 10530
ski es</w> 10527
ta r</w> 10515
sw ear</w> 10515
E x 10512
E a 10504
cor az 10496
th ri 10495
it i 10488
B ro 10487
spa ce</w> 10478
do in</w> 10477
wa lls</w> 10455
some where</w> 10451
b in</w> 10437
w n 10436
e mb 10431
min ute</w> 10430
ang er</w> 10420
a go</w> 10416
No body</w> 10406
th y</w> 10395
o b 10384
pla in</w> 10379
dou bt</w> 10373
l le 10370
f ro 10356
tal kin</w> 10356
Ano ther</w> 10346
p an 10339
fi ve</w> 10339
mo ving</w> 10322
s k</w> 10297
s now</w> 10296
ra dio</w> 10296
F eel</w> 10285
gr an 10276
es ca 10268
every where</w> 10260
ev il</w> 10259
fa ir</w> 10256
gg er</w> 10256
Some one</w> 10256
che ck</w> 10254
E l</w> 10250
f er 10245
men ts</w> 10244
k id</w> 10237
ea se</w> 10237
Al ways</w> 10231
E s</w> 10225
son gs</w> 10224
b rain</w> 10221
bi en</w> 10218
A f 10215
t re</w> 10212
an yone</w> 10207
sh oul 10203
thou ghts</w> 10203
wr ite</w> 10203
a a 10201
beg in</w> 10187
Pe ople</w> 10183
fa de</w> 10178
f ar 10177
pic ture</w> 10166
mi ra 10162
yo nd</w> 10149
qu ' 10142
pla ying</w> 10142
ele c 10135
ba b 10134
clo ser</w> 10115
stor m</w> 10111
co ver</w> 10110
T e</w> 10108
en do</w> 10096
sc rea 10089
' round</w> 10073
t - 10067
t end</w> 10066
tt en</w> 10057
o m</w> 10050
ma in</w> 10045
On ce</w> 10033
H er</w> 10029
t z 10027
ga n</w> 10025
han g</w> 10025
ck er</w> 10017
n t</w> 10013
be come</w> 10011
gla d</w> 10000
sa l 9994
S e</w> 9988
di amon 9987
wa ste</w> 9979
don t</w> 9979
ba r</w> 9973
p en</w> 9968
di ed</w> 9950
in ter 9944
go l 9928
lon ger</w> 9913
bo tt 9905
clou ds</w> 9905
ha y</w> 9900
dir ty</w> 9898
mi s 9897
ang els</w> 9891
hu h</w> 9891
oc ean</w> 9883
cr et</w> 9879
drea ming</w> 9878
ra ther</w> 9876
en ding</w> 9861
strang e</w> 9857
pri de</w> 9853
sh it</w> 9842
T on 9828
C hi 9828
sen se</w> 9827
gh o 9820
Qu i 9790
sto od</w> 9785
high er</w> 9771
w ers</w> 9768
ma is</w> 9756
te en</w> 9753
fun ny</w> 9735
S un 9732
t w 9701
t ers</w> 9684
whi ch</w> 9683
z z</w> 9679
sp ar 9675
po li 9674
tel ling</w> 9674
hea t</w> 9660
beli ev 9651
I' ma</w> 9648
fe w</w> 9645
th i 9626
li vin</w> 9615
who a</w> 9613
n er 9611
po int</w> 9600
ch en</w> 9599
clo thes</w> 9592
pi ck</w> 9584
cor ner</w> 9584
so lo</w> 9568
shin ing</w> 9557
t une</w> 9556
ear ing</w> 9554
ch a</w> 9553
p lea 9549
D ar 9548
b les</w> 9542
mer i 9532
i o</w> 9525
y a 9479
da wn</w> 9468
mo on 9466
e ter 9454
po or</w> 9453
v o</w> 9439
z ing</w> 9433
sil ence</w> 9431
U n</w> 9424
A r 9421
el o</w> 9419
A u 9415
watch ing</w> 9415
t ' 9414
p o</w> 9409
in king</w> 9409
lo sing</w> 9394
r .</w> 9390
wo od</w> 9384
en te</w> 9375
al most</w> 9368
se cret</w> 9363
P or</w> 9355
sen ti 9335
v u 9334
Ã ³ 9322
fa ther</w> 9318
ear ly</w> 9318
b et</w> 9316
el u 9315
Ã ¡ 9312
c our 9291
d ust</w> 9287
sing le</w> 9284
fa i 9263
e f</w> 9261
t ely</w> 9259
do o</w> 9240
blo ck</w> 9239
re cor 9229
da r</w> 9229
ki ck</w> 9228
pie ce</w> 9228
gra ce</w> 9218
me ans</w> 9214
dr ed</w> 9211
sma ll</w> 9210
h o</w> 9203
happ en</w> 9199
e i 9184
g an 9159
sc ream</w> 9157
comp le 9139
Sa id</w> 9137
itt le</w> 9132
e ld</w> 9131
b ru 9130
f y</w> 9129
d ry</w> 9123
l en</w> 9105
t reat</w> 9099
v an 9098
ri st</w> 9097
coun t</w> 9094
U p</w> 9074
gla ss</w> 9063
gh ty</w> 9051
s ca 9046
ve z</w> 9046
w l</w> 9038
he ld</w> 9034
T al 9026
< unk 9010
brea king</w> 9010
ni gga</w> 9009
lin es</w> 9002
every day</w> 8993
sta te</w> 8992
<unk ></w> 8982
B ur 8964
emp re</w> 8959
ho le</w> 8951
di ch</w> 8949
disa pp 8947
gi e</w> 8945
lo vely</w> 8940
r o</w> 8916
en a</w> 8915
s se</w> 8911
Hea ven</w> 8900
Ã ­ 8895
y esterday</w> 8887
mid dle</w> 8876
it u 8873
sun shine</w> 8860
sa tis 8858
m ' 8857
T wo</w> 8841
pu m</w> 8840
S an 8836
ok ay</w> 8835
ou d</w> 8824
g ing</w> 8816
moun tain</w> 8815
S ee 8810
low ly</w> 8806
tt ers</w> 8798
tur es</w> 8798
ju mp</w> 8797
s wi 8781
a u</w> 8775
cri ed</w> 8764
ch er</w> 8755
A N 8743
S ince</w> 8725
sa fe</w> 8725
h our</w> 8723
sti ck</w> 8721
sha dows</w> 8719
Bi g</w> 8719
L ittle</w> 8718
in es</w> 8703
lu cky</w> 8700
Go od</w> 8682
hu man</w> 8673
s har 8672
l i</w> 8666
lor d</w> 8659
ll u 8646
run nin</w> 8640
Bo y</w> 8635
pla n</w> 8629
t to</w> 8606
a head</w> 8603
c el 8600
dea l</w> 8600
ma ch 8588
ri ch</w> 8583
ca se</w> 8582
J oh 8580
b ound</w> 8578
lea ves</w> 8577
gi ven</w> 8569
l ying</w> 8561
s ci 8555
desi re</w> 8544
th ir 8537
th a 8532
win ter</w> 8532
m un 8526
Loo king</w> 8522
in san 8517
pla yed</w> 8515
tur ns</w> 8503
A meri 8490
ti on 8487
- -</w> 8484
f it</w> 8480
D u</w> 8479
reali ze</w> 8472
tre es</w> 8463
feel ings</w> 8457
simp le</w> 8449
S how</w> 8431
ti es</w> 8430
g ent 8423
ho ly</w> 8413
wi l 8412
sc u 8409
m is</w> 8403
pa per</w> 8402
w hatever</w> 8399
hun dred</w> 8398
U h</w> 8393
ir s</w> 8386
ta ble</w> 8379
gg ing</w> 8379
c 'est</w> 8378
mid night</w> 8376
fla me</w> 8374
lla r</w> 8374
ra n</w> 8372
bo x</w> 8370
Ã ¼ 8369
clea n</w> 8366
me ss</w> 8363
hur ts</w> 8359
ba ck 8357
ci a</w> 8342
crow d</w> 8342
d é 8331
v in 8325
de li 8323
tra ck</w> 8316
j un 8314
bla ck 8312
some thin</w> 8302
en ty</w> 8289
c ent</w> 8286
p lo 8282
g rea 8281
tr an 8281
T ra 8272
n ey</w> 8268
P la 8266
Wa tch</w> 8266
cho ose</w> 8265
nee ded</w> 8256
no ti 8250
di r</w> 8250
l ev 8249
ga l</w> 8240
li t</w> 8233
re spe 8231
be yond</w> 8225
spe cial</w> 8213
lo ck</w> 8203
t out</w> 8198
pp er</w> 8194
e u 8191
a sk 8188
th u 8178
to s</w> 8176
Af ter</w> 8169
sc ene</w> 8168
T ho 8153
L u 8143
happ ened</w> 8135
lu ck</w> 8110
R u 8109
th ank</w> 8108
any way</w> 8108
stu ck</w> 8106
c tor</w> 8103
w eak</w> 8098
it ion</w> 8095
v or</w> 8082
mi ssing</w> 8081
lo vers</w> 8072
wi r</w> 8063
wi fe</w> 8061
th s</w> 8052
ta s</w> 8047
P er 8046
F i 8043
i ces</w> 8042
i ld</w> 8036
e ts</w> 8036
lear ned</w> 8032
qu ite</w> 8028
Bla ck</w> 8021
t rea 8015
dest in 8015
t t</w> 8014
eng th</w> 8012
P or 8007
S ch 8001
w a</w> 7997
le ss 7993
re turn</w> 7986
ke pt</w> 7984
free dom</w> 7983
bir ds</w> 7982
C all</w> 7981
glo ry</w> 7973
S weet</w> 7964
li st 7962
st le</w> 7959
fan ta 7926
Ã ¤ 7915
T ry</w> 7907
wonder ful</w> 7905
M i</w> 7900
pu sh</w> 7895
c ts</w> 7893
cu er 7893
gu ar 7887
o sed</w> 7884
W o 7883
me lo 7881
In to</w> 7877
sha dow</w> 7870
wo men</w> 7855
th r 7848
b ree 7845
na da</w> 7841
dre ss</w> 7840
mir ror</w> 7836
' mon</w> 7833
m pa 7827
br and</w> 7815
fi gh 7813
ni e</w> 7799
v al 7796
di se</w> 7796
stea d</w> 7795
bo ok</w> 7794
me an 7788
ro se</w> 7787
wor king</w> 7780
z en</w> 7769
K ing</w> 7767
C ha 7766
kin da</w> 7754
sa s</w> 7750
un ca</w> 7749
br ought</w> 7749
e h</w> 7739
de st</w> 7738
ni ght 7736
sti c</w> 7727
ch ea 7718
y na</w> 7708
be side</w> 7702
whi sp 7701
fi lled</w> 7697
clo ck</w> 7697
vo y</w> 7697
Ton ight</w> 7687
P ero</w> 7686
ar m</w> 7678
Y O 7667
some day</w> 7666
e d 7664
de f 7660
s se 7649
c ant</w> 7648
ca p 7644
b one</w> 7641
pre tend</w> 7633
a st</w> 7618
g y</w> 7615
ou tta</w> 7609
so y</w> 7608
jo b</w> 7597
str on 7587
s ar 7586
loo se</w> 7586
k an 7580
su per 7573
ra i 7569
D an 7565
mo tion</w> 7562
sur pri 7562
ar ri 7558
hear t 7546
si ons</w> 7545
v ous</w> 7543
s en</w> 7541
S top</w> 7540
Be tter</w> 7538
th a</w> 7537
l t</w> 7528
vie w</w> 7521
ca sh</w> 7509
o - 7505
Do es</w> 7505
thin kin</w> 7502
e in 7500
st y</w> 7496
k u</w> 7495
m ás</w> 7486
fa te</w> 7466
hi ll</w> 7464
a qu 7452
on ic</w> 7448
b s</w> 7439
G a 7438
w it 7431
Li sten</w> 7427
w oo 7423
sh el 7420
some how</w> 7420
er ed</w> 7419
B ring</w> 7417
gg in</w> 7414
Some body</w> 7412
ex i 7403
ri es</w> 7397
sor row</w> 7386
Re member</w> 7385
ar s</w> 7384
an ybody</w> 7378
c in</w> 7374
gol den</w> 7361
O ver</w> 7356
S ou 7352
G i 7350
si x</w> 7348
p es</w> 7346
h ours</w> 7344
M ore</w> 7343
Ever y 7338
sl eeping</w> 7332
ten der</w> 7331
su is</w> 7325
survi ve</w> 7325
en ever</w> 7321
rain bow</w> 7321
c ree 7315
rhy th 7311
sho ot</w> 7309
pri ce</w> 7306
Lea ve</w> 7306
s to</w> 7301
H op 7292
ta ken</w> 7291
b loo 7285
fal ls</w> 7271
pa id</w> 7261
en a 7260
d are</w> 7251
C on</w> 7250
ra ise</w> 7249
s na 7243
beau ty</w> 7238
Sta y</w> 7220
H u 7215
m ance</w> 7213
m me</w> 7205
fa ces</w> 7204
mp in</w> 7200
sh out</w> 7196
sh ut</w> 7195
ol vi 7180
supp osed</w> 7177
Ro ck</w> 7176
fin al</w> 7173
a wake</w> 7163
v as</w> 7160
ex c 7157
su r</w> 7144
m it 7142
ne ws</w> 7140
sto y</w> 7140
star ts</w> 7136
S te 7135
sc ri 7134
sin ess</w> 7134
b ones</w> 7132
sa yin</w> 7125
t un 7103
F u 7089
ye a</w> 7085
com me</w> 7083
F ri 7081
B r 7077
min ds</w> 7067
Th ink</w> 7064
jo s</w> 7063
an k 7062
up id</w> 7053
C he 7050
f ü 7047
ver se</w> 7046
str ength</w> 7041
ea l</w> 7039
w re 7036
h en</w> 7033
L e</w> 7022
hor a</w> 7022
pla ces</w> 7020
l ey</w> 7018
un t</w> 7014
sel ves</w> 7013
a w 7008
s lowly</w> 6997
spir it</w> 6997
ti e</w> 6995
an _ 6994
bu ild</w> 6989
h n</w> 6988
ur ch</w> 6985
TH E</w> 6983
thri ll</w> 6983
m ur 6970
c l 6967
que en</w> 6967
f ur 6963
ask ed</w> 6962
T il</w> 6958
na h</w> 6958
ff er</w> 6954
0 0</w> 6953
su b 6952
le ts</w> 6948
K no 6947
eep er</w> 6934
ev ening</w> 6929
di re 6927
pra yer</w> 6925
c tor 6918
Wa iting</w> 6918
st ers</w> 6916
S ho 6915
f fe 6914
gu it 6912
insan e</w> 6912
Co mo</w> 6904
G ra 6901
it in</w> 6901
ta ins</w> 6901
ha ving</w> 6893
am o</w> 6891
N a</w> 6889
in ing</w> 6889
H ear 6888
ki lling</w> 6888
tch ing</w> 6888
s ' 6876
nu r</w> 6865
cha in</w> 6852
for t</w> 6850
mer cy</w> 6847
fa ke</w> 6844
fa ct</w> 6839
sa r</w> 6838
v el</w> 6836
sil ver</w> 6834
p ing</w> 6833
li fe 6830
m my</w> 6828
bel ls</w> 6826
st are</w> 6820
lea st</w> 6820
h t</w> 6814
A m</w> 6808
L on 6808
gho st</w> 6801
mi c</w> 6800
wh e 6798
w on</w> 6797
H on 6786
k i</w> 6784
wea ther</w> 6783
ee ding</w> 6780
gra ve</w> 6776
d or 6772
fing ers</w> 6772
rhyth m</w> 6772
ch ee 6768
mi es</w> 6765
n ine</w> 6764
Y or 6763
pr oud</w> 6749
si empre</w> 6737
b oun 6731
di g</w> 6731
br ings</w> 6726
ro a 6724
ch in</w> 6723
g ed</w> 6721
k u 6714
m n</w> 6711
bu siness</w> 6710
con fu 6709
C al 6706
c in 6703
R un</w> 6696
in no 6692
É  6680
tri p</w> 6680
bl in 6679
g roo 6675
hel lo</w> 6675
n one</w> 6652
i ons</w> 6647
men tal</w> 6644
k ni 6643
lu tion</w> 6643
d d 6639
pie ces</w> 6638
kno ck</w> 6620
ru les</w> 6620
e go</w> 6619
la w</w> 6618
R un 6617
V er 6612
go tten</w> 6604
i ling</w> 6603
mb i 6599
da y 6597
B lu 6596
we st</w> 6589
Li ving</w> 6585
li ar</w> 6580
Yor k</w> 6580
f el 6575
ja h</w> 6564
w ha 6560
hea vy</w> 6556
g un 6553
li sh</w> 6553
Some where</w> 6550
er ever</w> 6546
sc o</w> 6545
Ã³ n</w> 6543
pp y</w> 6540
ty pe</w> 6533
qui ck</w> 6530
esca pe</w> 6530
na l</w> 6528
bab ly</w> 6528
figh ting</w> 6515
pa in 6513
mi e</w> 6512
in ten 6507
so ft</w> 6504
c les</w> 6498
ex plain</w> 6498
lor s</w> 6484
B ea 6482
re w</w> 6475
pro ve</w> 6474
sh in</w> 6473
Tr ying</w> 6473
cu ando</w> 6472
ma r</w> 6470
war ds</w> 6468
or n</w> 6462
se ll</w> 6460
sol di 6458
ren der</w> 6455
bo ttle</w> 6453
ev en 6451
d ent</w> 6448
w er 6448
ble ed</w> 6444
wee k</w> 6444
o thers</w> 6442
twi ce</w> 6438
e e</w> 6431
car s</w> 6430
st upid</w> 6425
Fe el 6422
O pen</w> 6419
mi ghty</w> 6417
d den</w> 6411
para dise</w> 6409
s che 6397
Ma ma</w> 6396
ro lling</w> 6387
e dge</w> 6379
y el 6379
ro mance</w> 6377
K now</w> 6374
ra ge</w> 6373
fle sh</w> 6367
sli p</w> 6365
tu ra 6364
M r.</w> 6363
G oo 6356
sp ring</w> 6356
o i</w> 6354
C la 6353
pre s 6351
L ong</w> 6349
g ur 6348
ti emp 6347
n eath</w> 6340
ch i</w> 6339
vu el 6338
sp ent</w> 6330
ja zz</w> 6329
cri me</w> 6315
v on</w> 6310
oh - 6310
ru sh</w> 6304
Sh ould</w> 6304
we ight</w> 6303
ce pt</w> 6302
stea l</w> 6300
C ra 6296
lon e 6294
x i 6293
do wn 6292
ex pe 6289
ma kin</w> 6285
ne ck</w> 6285
il ed</w> 6283
h h 6272
to i</w> 6266
Tho se</w> 6262
le i 6257
imp or 6254
hang ing</w> 6250
en ti 6248
B rea 6239
car e 6238
ç a</w> 6229
si ster</w> 6229
ten go</w> 6229
re la 6222
ch er 6222
tr yna</w> 6214
bro thers</w> 6214
strang er</w> 6213
tter ed</w> 6208
di a</w> 6207
for give</w> 6206
e a</w> 6202
li ty</w> 6201
car es</w> 6199
s even</w> 6194
n ' 6193
Di e</w> 6189
vi ol 6188
p on 6187
flo wers</w> 6187
vi sion</w> 6181
ba g</w> 6175
k it 6169
I l</w> 6165
sp ot</w> 6165
sp ea 6162
San ta</w> 6160
mo vin</w> 6159
j i 6151
gro wn</w> 6151
har der</w> 6140
do llar</w> 6138
re si 6136
S tra 6134
ton gue</w> 6134
tch a</w> 6134
d den 6132
ga mes</w> 6125
respe ct</w> 6124
bott om</w> 6118
stu ff</w> 6115
bro wn</w> 6107
r it 6104
H ear</w> 6096
hea ds</w> 6089
ro llin</w> 6084
n unca</w> 6081
s ind</w> 6081
la dies</w> 6080
v an</w> 6078
mi ser 6070
la ter</w> 6069
foo t</w> 6069
re p 6068
D ri 6066
du mb</w> 6065
sit ting</w> 6064
Ã ± 6063
V o 6058
t ú</w> 6056
proble m</w> 6056
s me 6053
rhy me</w> 6051
ca tion</w> 6047
Par a</w> 6037
quest ion</w> 6031
Who a</w> 6031
b ought</w> 6029
p ed</w> 6022
g uns</w> 6021
de s 6021
dr unk</w> 6021
T han</w> 6013
pa th</w> 6011
A bout</w> 6010
d el 6003
W hatever</w> 6002
wa ve</w> 6002
tiemp o</w> 5996
ea si 5993
in v 5990
a do</w> 5978
fi sh</w> 5964
li ved</w> 5957
gr et</w> 5957
be ll</w> 5951
fi eld</w> 5950
reali ty</w> 5948
stron ger</w> 5945
t all</w> 5942
vi vi 5939
me in</w> 5937
H ar 5930
Sun day</w> 5928
Ma y</w> 5927
men te</w> 5926
c at</w> 5925
be low</w> 5923
mb ling</w> 5922
sc re 5910
g le</w> 5909
ro ses</w> 5909
Mar y</w> 5905
p le 5904
s ounds</w> 5903
un ch</w> 5897
cou ple</w> 5896
sou ls</w> 5894
qu er 5892
whisp er</w> 5891
C 'est</w> 5888
sp ell</w> 5886
a int</w> 5880
e stoy</w> 5880
for m</w> 5877
v ine</w> 5873
an o</w> 5869
pa ck</w> 5869
melo dy</w> 5869
c y 5865
sc ra 5865
H ol 5864
T ru 5864
mista ke</w> 5862
sil ent</w> 5861
est e</w> 5860
S ing</w> 5857
ig n</w> 5852
a ting</w> 5849
ssa ge</w> 5849
d it</w> 5844
mach ine</w> 5840
tr onic</w> 5839
no che</w> 5838
my ster 5838
se cre 5837
Be en</w> 5834
be l</w> 5832
fl ying</w> 5830
all ey</w> 5826
r ou 5823
ta tion</w> 5823
co ver 5820
le tter</w> 5816
mi go</w> 5811
ur s</w> 5810
mun do</w> 5810
wal kin</w> 5808
D u 5805
T V</w> 5804
gro wing</w> 5797
fal len</w> 5796
b es</w> 5785
u t 5783
k ar 5782
re gret</w> 5782
ki ssed</w> 5778
cho ice</w> 5769
re ly</w> 5768
bit ch</w> 5768
D ro 5767
er te</w> 5764
happ iness</w> 5763
t el</w> 5758
hear ta 5758
Ã ­</w> 5755
gu il 5754
Cu ando</w> 5753
j our 5751
li ft</w> 5750
fol ks</w> 5746
co lor</w> 5744
c up</w> 5741
pro bably</w> 5734
i z 5728
ti de</w> 5725
f - 5721
n ous</w> 5720
B en 5719
hea ven 5716
r in 5715
fa vor 5713
shor t</w> 5713
f ears</w> 5709
Un der</w> 5693
wr it 5692
gi m</w> 5690
p our 5688
elec tronic</w> 5688
co o 5686
ni a</w> 5686
j or</w> 5682
YO U</w> 5682
d dle</w> 5681
so s</w> 5677
M a</w> 5674
bea ts</w> 5671
sho o 5671
k o</w> 5665
w ns</w> 5663
bree ze</w> 5655
dden ly</w> 5654
buil t</w> 5652
b ust</w> 5648
h n 5646
n ers</w> 5644
f reak</w> 5639
s - 5634
sw ing</w> 5634
any where</w> 5630
elu jah</w> 5627
g er 5621
ba ttle</w> 5621
ã  5619
sta ge</w> 5618
dar lin</w> 5616
qui et</w> 5613
g low</w> 5611
Por que</w> 5611
ch est</w> 5608
ste ps</w> 5607
ra z 5604
L o</w> 5600
li ght 5597
wh eel</w> 5595
so li 5592
da u 5584
gu re</w> 5581
gg ed</w> 5581
B lo 5580
Ever yone</w> 5578
cha ins</w> 5578
Ha d</w> 5577
ne igh 5574
ro te</w> 5570
low ed</w> 5564
g ry</w> 5560
T u 5559
in ts</w> 5559
pue do</w> 5556
da n</w> 5552
ex plo 5550
laugh ing</w> 5548
ben eath</w> 5546
pla yin</w> 5545
d at</w> 5544
am our</w> 5542
For ever</w> 5542
Ma is</w> 5541
M an 5537
dr in 5534
no ch</w> 5527
sme ll</w> 5521
t ough</w> 5520
w enn</w> 5516
la tion</w> 5516
u l</w> 5512
p on</w> 5507
sur render</w> 5507
H im</w> 5504
fing er</w> 5504
e tte</w> 5502
lo cked</w> 5498
ho o 5497
pa ssed</w> 5497
pa ti 5485
dro ps</w> 5482
di c 5479
Th ings</w> 5477
wa ves</w> 5472
f ru 5468
ra y</w> 5465
trou bles</w> 5464
a sleep</w> 5463
Ã ¶ 5462
sear ching</w> 5459
we i 5458
ca lls</w> 5457
mo ves</w> 5453
c _ 5450
ti ve</w> 5441
cre w</w> 5441
laugh ter</w> 5441
T en 5440
h r 5438
shoul der</w> 5435
g t</w> 5434
lone some</w> 5434
Wal k</w> 5433
ad dy</w> 5426
ca st</w> 5425
t ee 5420
W an</w> 5416
wi se</w> 5413
mo ther 5409
fu lly</w> 5408
kno wing</w> 5405
wa sh</w> 5404
el e</w> 5404
gi ves</w> 5403
M E</w> 5401
w ning</w> 5397
re fle 5395
bi g 5393
F ir 5392
cli mb</w> 5392
et to</w> 5388
fa ul 5382
Mon ey</w> 5378
fe ed</w> 5370
we ed</w> 5369
chang ing</w> 5368
st in</w> 5359
cu l 5357
I - 5352
as king</w> 5352
den y</w> 5350
I' mma</w> 5350
c ele 5349
moon light</w> 5349
tan to</w> 5344
v i</w> 5342
Ä ± 5337
é s</w> 5336
Ni ggas</w> 5330
bu ll 5328
p al 5327
C an 5326
t ant</w> 5323
ck en</w> 5323
F al 5321
l ing 5319
su gar</w> 5318
con fe 5317
D a</w> 5315
tra vel 5315
high way</w> 5314
ki sses</w> 5313
f at</w> 5309
op s</w> 5308
- a- 5307
fi gure</w> 5306
F ol 5304
l en 5304
ir t</w> 5299
Lo st</w> 5297
fa me</w> 5295
Ea ch</w> 5295
la - 5291
pro te 5290
vo ices</w> 5289
l _ 5284
sl eep 5284
dir t</w> 5279
do ors</w> 5277
beg inning</w> 5275
favor ite</w> 5275
wa sted</w> 5274
W ant</w> 5272
mo od</w> 5270
m ea 5269
el ds</w> 5269
tz t</w> 5266
pa ssing</w> 5255
La st</w> 5252
tt i</w> 5250
pa ssion</w> 5250
stor e</w> 5250
E R 5247
cu re</w> 5239
z a 5236
St an 5236
pra ise</w> 5235
on ed</w> 5234
wi r 5231
m _ 5230
so f 5227
sh ore</w> 5226
y p 5223
è re</w> 5223
re f 5219
S il 5215
Ch rist</w> 5212
li ed</w> 5211
ing in</w> 5211
stan ds</w> 5210
f on 5209
el ess</w> 5200
ver sa 5199
d y 5198
fa it</w> 5198
ar t</w> 5196
w rote</w> 5191
na tura 5188
d ee 5187
fi f 5187
dou ble</w> 5186
gh etto</w> 5183
ci o</w> 5183
cor e</w> 5182
w ra 5180
fin i 5180
happ ens</w> 5179
ch u 5178
k ers</w> 5172
a us</w> 5172
H it</w> 5171
ga in</w> 5171
cha se</w> 5170
ra r</w> 5163
brea ks</w> 5163
w et</w> 5161
ca ted</w> 5161
foo ls</w> 5157
wo ke</w> 5154
b re 5149
coraz ón</w> 5143
cer tain</w> 5141
pre ss</w> 5138
di me</w> 5137
ca te</w> 5132
b ite</w> 5126
F ind</w> 5123
S tr 5121
lo ad</w> 5120
D addy</w> 5119
vo c 5119
dri ving</w> 5116
L es</w> 5115
pl ans</w> 5108
er ing</w> 5107
de ce 5107
ci ón</w> 5107
ge st</w> 5106
ene my</w> 5103
guit ar</w> 5103
f ea 5102
Ã¡ s</w> 5102
cri es</w> 5101
wor se</w> 5097
p ho 5089
dest ro 5088
ma ge</w> 5085
screa ming</w> 5083
co s</w> 5081
in stead</w> 5076
me ssage</w> 5072
att en 5059
fü r</w> 5059
dist ance</w> 5055
kni fe</w> 5052
th under</w> 5048
an e</w> 5045
f i</w> 5041
b ear</w> 5040
d re</w> 5039
miser y</w> 5037
n ar 5033
it tin</w> 5032
mi l 5032
Ã ¡</w> 5031
f rea 5026
it ting</w> 5026
re me 5026
F re 5024
' Til</w> 5022
sa ved</w> 5020
ent ly</w> 5020
li for 5017
sear ch</w> 5014
Y oun 5013
b re</w> 5008
wa itin</w> 5007
pre cious</w> 4991
da te</w> 4988
ro ckin</w> 4987
qu it</w> 4986
re gre 4978
s no 4976
see med</w> 4975
m - 4972
E A 4968
disapp ear</w> 4967
re main</w> 4966
H as</w> 4962
po i 4962
de sper 4956
s wa 4949
fi ce</w> 4947
W e 4939
se i</w> 4938
eter n 4937
Ma kes</w> 4936
St re 4935
gar den</w> 4930
A y</w> 4929
tel e 4927
a po 4926
ch urch</w> 4926
surpri se</w> 4924
c ting</w> 4922
ñ o</w> 4918
gir l 4913
recor d</w> 4913
D ay</w> 4912
ri sing</w> 4912
Goo d 4910
ta ught</w> 4907
gra b</w> 4906
mi x</w> 4902
in de 4896
mi le</w> 4894
cr yin</w> 4893
clou d</w> 4893
S l 4892
for e 4891
vi ce</w> 4888
W el 4887
D rea 4884
diamon d</w> 4879
sit u 4876
st eel</w> 4873
bo at</w> 4872
y ers</w> 4869
ev a</w> 4869
fre sh</w> 4867
mean ing</w> 4866
E ar 4863
n ão</w> 4862
wa ited</w> 4862
hi story</w> 4859
ing le</w> 4857
mb re</w> 4857
tee th</w> 4857
fla mes</w> 4855
af ter 4854
Wa y</w> 4854
san g</w> 4854
C ity</w> 4853
mi ssion</w> 4853
d ang 4847
f ting</w> 4845
M er 4843
Sha ke</w> 4842
ta kin</w> 4835
col le 4829
p hi 4825
li l</w> 4822
q u</w> 4819
mm ing</w> 4819
smi ling</w> 4819
B reak</w> 4818
gra y</w> 4818
P our</w> 4813
r ings</w> 4811
D on 4811
tur day</w> 4811
mo mma</w> 4808
re mind</w> 4807
Hon ey</w> 4807
fi x</w> 4806
bur ned</w> 4806
bur ns</w> 4804
deser ve</w> 4803
sp in</w> 4802
le an 4798
min u 4794
diamon ds</w> 4794
C lose</w> 4792
su e 4791
ol der</w> 4786
foo lish</w> 4781
ur a</w> 4780
for gotten</w> 4777
see ing</w> 4775
ke ys</w> 4772
hun gry</w> 4772
mista kes</w> 4771
ck ets</w> 4770
differ ence</w> 4770
h ero</w> 4767
in ation</w> 4767
so l</w> 4767
a h 4765
bu m</w> 4763
Youn g</w> 4758
ri ding</w> 4755
spe ed</w> 4753
B ar 4750
e so</w> 4748
qu ar 4747
i llu 4741
be gun</w> 4739
do ch</w> 4734
ge l</w> 4734
ch ristmas</w> 4731
sw eat</w> 4731
fi elds</w> 4730
bo ard</w> 4729
lifor nia</w> 4729
va tion</w> 4726
gr and</w> 4725
b us</w> 4722
T ou 4722
ti go</w> 4722
shin es</w> 4722
l lo 4720
hor se</w> 4719
lea n</w> 4718
gg le</w> 4717
sou th</w> 4715
li ck</w> 4709
pu re</w> 4708
St and</w> 4708
si on 4707
clo sed</w> 4707
wonder ing</w> 4707
l un 4705
O U 4703
satis fied</w> 4701
d eeper</w> 4698
na tion</w> 4695
Hel p</w> 4695
fe li 4693
oun ded</w> 4691
n in 4688
on gs</w> 4688
f fi 4686
ent re</w> 4681
mi se</w> 4678
ki lled</w> 4676
c tions</w> 4675
bi st</w> 4674
ha b</w> 4672
c us</w> 4669
k ing 4665
b o</w> 4664
ar te</w> 4662
pr a</w> 4662
Li ve</w> 4661
m or</w> 4660
sp inning</w> 4659
gu ys</w> 4655
destin y</w> 4654
oo k</w> 4653
va in</w> 4653
s n 4652
v al</w> 4649
ss a</w> 4649
F in 4646
ho y</w> 4646
re li 4645
p in 4643
fai th 4640
S ol 4637
D eep</w> 4637
fal lin</w> 4635
for ce</w> 4633
hi er</w> 4632
han dle</w> 4630
e ve</w> 4629
ad ore</w> 4629
k en 4627
en er 4624
sig ns</w> 4624
d ding</w> 4620
end less</w> 4619
H al 4618
o th</w> 4616
proble ms</w> 4613
b end</w> 4611
dro wn</w> 4610
p in</w> 4608
gro ws</w> 4607
rea sons</w> 4605
W on 4603
an ks</w> 4603
e mo 4602
ra s</w> 4602
S on</w> 4597
si gh</w> 4594
wor st</w> 4592
Fir st</w> 4591
ll es</w> 4589
sto pped</w> 4589
on to</w> 4585
Hi gh</w> 4581
pa int</w> 4580
le gs</w> 4574
t each</w> 4572
no ise</w> 4571
life time</w> 4565
cru el</w> 4563
s eat</w> 4562
L ou 4554
en es</w> 4554
Th row</w> 4551
ee ts</w> 4550
sh e 4549
mi ssed</w> 4548
comple te</w> 4546
L ay</w> 4544
al le 4543
be er</w> 4542
con ne 4542
d ence</w> 4541
cour se</w> 4539
g n 4537
fr on 4537
sa cri 4534
mor nin</w> 4534
pp ers</w> 4534
Hel lo</w> 4532
chang es</w> 4531
i ous</w> 4530
ti ed</w> 4530
so ld</w> 4530
mb a</w> 4526
z e 4525
gre y</w> 4524
beg ins</w> 4523
gg y</w> 4518
mi x 4515
win ds</w> 4513
ru m</w> 4509
si x 4505
ma ins</w> 4504
dre ssed</w> 4504
temp s</w> 4504
Blu e</w> 4504
co w 4500
ci gar 4494
wal ks</w> 4494
un que</w> 4493
bo ss</w> 4493
won t</w> 4489
ev i 4485
gra ss</w> 4483
L L</w> 4482
Sa ve</w> 4482
Some day</w> 4482
gen te</w> 4482
ly ri 4480
drea med</w> 4479
ssi ble</w> 4476
bea ting</w> 4471
lo a 4470
imag ine</w> 4469
di ce</w> 4467
me hr</w> 4466
ho me 4464
sa il</w> 4464
run s</w> 4462
e c 4461
han d 4451
s co 4450
z u 4446
Ma de</w> 4443
be g</w> 4441
Wa it</w> 4441
D J</w> 4440
a ted</w> 4437
N u 4427
al ma</w> 4426
na ture</w> 4424
bo y 4419
the e</w> 4419
A ny</w> 4418
I N</w> 4416
in er</w> 4415
myster y</w> 4415
O ld</w> 4414
po cket</w> 4412
See ms</w> 4412
atten tion</w> 4409
l low</w> 4407
fa ire</w> 4406
l ous</w> 4403
re co 4402
E R</w> 4399
in en</w> 4398
da vi 4398
g ni 4397
£ o</w> 4393
bu sy</w> 4392
G im</w> 4390
cover ed</w> 4390
el _ 4389
ve c</w> 4389
O r 4384
mo vie</w> 4382
quest ions</w> 4382
S mo 4381
c ess</w> 4379
Th e 4376
par k</w> 4375
wel come</w> 4374
di vi 4369
en ter 4368
ba be</w> 4365
b less</w> 4359
Jo e</w> 4359
g ne</w> 4358
IN G</w> 4358
li ch</w> 4358
es to</w> 4357
par t 4354
sp read</w> 4352
ru le</w> 4348
u g 4347
g on 4347
ho li 4346
y uh</w> 4345
mp ed</w> 4343
hur ry</w> 4339
dis gu 4338
bi ll 4336
D ance</w> 4330
secre ts</w> 4330
da m 4329
fo od</w> 4325
p - 4324
E ver</w> 4324
er t</w> 4323
sho ws</w> 4323
Joh n 4323
Ameri ca</w> 4322
brea thing</w> 4318
re vo 4317
der ing</w> 4317
list ening</w> 4317
k eeping</w> 4316
cla im</w> 4309
Ã § 4308
b by</w> 4307
mer ry</w> 4306
ha sta</w> 4305
e ty</w> 4303
com fort</w> 4300
cha ir</w> 4299
promi sed</w> 4298
sho ts</w> 4297
A - 4296
chi ck</w> 4296
per o</w> 4295
plan e</w> 4295
pa r</w> 4294
ha un 4293
lo n</w> 4293
wor e</w> 4293
sh y</w> 4290
ig no 4289
hea l</w> 4288
tor n</w> 4286
cro wn</w> 4285
w ear 4282
our selves</w> 4275
Go ing</w> 4275
e sper 4273
bri dge</w> 4272
st em</w> 4270
faul t</w> 4269
Ã­ a</w> 4268
tou ched</w> 4267
a v 4265
le _ 4265
m and</w> 4264
deser t</w> 4264
t z</w> 4263
mo ved</w> 4263
si ch</w> 4262
Wa ke</w> 4262
plea sure</w> 4262
no se</w> 4261
w ling</w> 4256
G re 4255
vi cti 4249
ss y</w> 4249
i mmer</w> 4247
cra wl</w> 4247
m are</w> 4246
ha ll 4245
de e</w> 4243
W ir</w> 4240
ma te</w> 4240
dru m</w> 4239
Ma king</w> 4238
si ble</w> 4237
be gan</w> 4234
ch ill</w> 4234
T O</w> 4233
ga te</w> 4229
hearta che</w> 4229
cele bra 4229
or a</w> 4227
tru ck</w> 4226
de mon 4225
Mo ve</w> 4225
be i</w> 4224
gen er 4223
g ang 4220
hi ding</w> 4220
of _ 4216
ne l</w> 4215
Be lieve</w> 4214
promi ses</w> 4213
li kes</w> 4212
answ ers</w> 4209
hi p</w> 4205
ma ster</w> 4198
stor ies</w> 4193
o le</w> 4192
gi a</w> 4192
z o</w> 4191
g ang</w> 4190
de p 4190
al e 4189
se es</w> 4189
co lors</w> 4183
for got</w> 4182
ir a</w> 4181
ce _ 4181
bit ter</w> 4181
H an 4178
f in</w> 4178
tel ls</w> 4178
c 'mon</w> 4177
ll y 4176
t ent</w> 4175
H er 4170
P lay</w> 4170
al les</w> 4170
z one</w> 4169
brea k 4167
so m</w> 4166
der ed</w> 4165
di vine</w> 4164
lan e</w> 4163
mb o</w> 4161
moun tains</w> 4160
C oun 4159
S li 4157
gui de</w> 4157
D ea 4156
b _ 4152
fa il</w> 4150
see k</w> 4150
ca u 4149
il le</w> 4149
hop ing</w> 4148
Joh n</w> 4148
deci de</w> 4147
So on</w> 4146
S tu 4144
li st</w> 4144
bi gger</w> 4142
Run ning</w> 4142
e sp 4138
ro cks</w> 4138
Ã £o</w> 4137
An y 4137
n en</w> 4133
fa ster</w> 4132
wee k 4132
f lies</w> 4130
do gs</w> 4130
fanta sy</w> 4130
si des</w> 4129
j ea 4124
li ber 4124
e ight</w> 4123
L I 4122
mm m</w> 4122
wi cked</w> 4121
cla ss</w> 4121
watch ed</w> 4121
o ' 4119
For get</w> 4118
p un 4114
E u</w> 4113
ta le</w> 4111
y ard</w> 4109
blo ws</w> 4106
h i</w> 4105
mi e 4100
An g 4100
d anger</w> 4099
emb race</w> 4099
lo wing</w> 4096
brea d</w> 4096
ca min 4094
br an 4094
Sa turday</w> 4094
su c 4092
mp s</w> 4091
Th ree</w> 4090
pi e</w> 4090
e der</w> 4089
ju sti 4089
i - 4088
b ou 4088
re v 4086
f er</w> 4079
pu lled</w> 4079
don de</w> 4078
o pp 4075
sa ke</w> 4075
Wel come</w> 4075
Wi sh</w> 4071
j' ai</w> 4067
M or 4066
g in</w> 4065
fa ding</w> 4065
sun ny</w> 4065
Gu ess</w> 4065
D ra 4064
sli de</w> 4062
el a</w> 4061
rhy mes</w> 4061
er as</w> 4055
pre ten 4055
gre w</w> 4055
i hr</w> 4052
groo ve</w> 4052
c ream</w> 4051
th ang</w> 4051
be d 4049
ci elo</w> 4049
C or 4048
po se</w> 4045
sto le</w> 4043
D r 4042
ca llin</w> 4042
po sit 4036
f ever</w> 4031
so le 4029
sl and</w> 4029
p h</w> 4028
lo ws</w> 4028
por que</w> 4024
do ctor</w> 4020
wor l 4015
yel low</w> 4015
mb ers</w> 4012
Un der 4012
Qui ero</w> 4007
J' ai</w> 4006
comp any</w> 4003
mon y</w> 4002
men to</w> 4001
se in</w> 4000
per son 4000
ca da</w> 3999
ou s 3997
cal m</w> 3997
Wh enever</w> 3996
In side</w> 3993
mm er 3992
je ans</w> 3992
sit tin</w> 3992
oo o</w> 3991
re call</w> 3989
Th ought</w> 3987
ar i 3985
fu e</w> 3985
1 9 3980
sea s</w> 3980
Ki ss</w> 3980
fa shi 3977
vivi r</w> 3977
N on</w> 3975
s lu 3973
le tting</w> 3972
Ja ck</w> 3972
pa ge</w> 3967
Le ft</w> 3966
m ous</w> 3962
ac tly</w> 3961
in o</w> 3955
gi ft</w> 3950
bi es</w> 3949
Ba d</w> 3949
Stan ding</w> 3947
c lear 3945
The ir</w> 3945
vi or</w> 3939
ce p 3938
jo in</w> 3938
dau ghter</w> 3936
pic tures</w> 3932
can dy</w> 3931
natura l</w> 3931
v alley</w> 3930
au to 3930
Ro ll</w> 3928
th rew</w> 3927
w ol 3925
st al 3923
wh erever</w> 3921
stea dy</w> 3920
1 0</w> 3917
f lu 3915
j ours</w> 3915
situ ation</w> 3915
Ca lifornia</w> 3913
mira cle</w> 3911
flo wer</w> 3910
sta tion</w> 3909
comp la 3905
tea m</w> 3905
sci ence</w> 3904
s mar 3903
. . 3901
Qu e 3901
R ed</w> 3899
en o</w> 3899
ss en</w> 3899
co st</w> 3898
ang u 3898
si ento</w> 3896
me u</w> 3895
Feel ing</w> 3894
you th</w> 3893
bl ed</w> 3891
drea m 3890
thin ks</w> 3890
lo gi 3889
ma i</w> 3887
writ ten</w> 3886
bo dies</w> 3885
F la 3883
Wal king</w> 3882
Good bye</w> 3878
li on</w> 3876
squ ee 3874
ri en</w> 3873
mo ments</w> 3872
An ything</w> 3872
imp o 3870
Hop e</w> 3870
Th ank</w> 3865
N ight</w> 3864
ck ers</w> 3864
no on</w> 3862
a ir 3860
re st 3859
spi ra 3858
g or 3855
ri p</w> 3855
su ddenly</w> 3855
f old</w> 3852
s é</w> 3851
AN D</w> 3850
Wh ite</w> 3849
dr inking</w> 3849
do ll 3847
ing _ 3845
ss er</w> 3842
ti ene</w> 3840
ha ll</w> 3838
e li 3836
la do</w> 3835
W ere</w> 3833
tel lin</w> 3832
soldi er</w> 3832
jour ney</w> 3831
ma tters</w> 3826
an to</w> 3823
w ty</w> 3818
fi re 3818
fi l 3816
s ins</w> 3813
ch or 3809
Che ck</w> 3806
con fi 3804
D on</w> 3803
lo ts</w> 3801
sta yed</w> 3801
pre sent</w> 3799
whe els</w> 3799
sp on 3796
ju d 3796
D as</w> 3795
den i 3793
N or 3791
grea test</w> 3790
f light</w> 3789
bra ve</w> 3785
ad mit</w> 3784
pr in 3783
L ight</w> 3779
twi st</w> 3779
disgu ise</w> 3779
o _ 3777
tw enty</w> 3775
lea vin</w> 3771
cir cle</w> 3771
fun ky</w> 3769
S in</w> 3768
a wa 3766
a ca 3766
to e</w> 3763
con tigo</w> 3762
boun ce</w> 3760
voc ê</w> 3760
g al 3759
mp ing</w> 3758
ma i 3756
kno w 3755
bl eeding</w> 3755
r is</w> 3751
smi les</w> 3751
hol ds</w> 3745
mu y</w> 3742
ffe e</w> 3739
sta l</w> 3737
co ast</w> 3733
ne s 3732
con tin 3732
dang er 3732
o jos</w> 3731
y u 3730
B orn</w> 3730
g - 3727
au ch</w> 3727
man i 3726
e tt 3725
S er 3724
poli ce</w> 3724
d or</w> 3723
ba ss</w> 3723
am eri 3723
T el 3722
s ans</w> 3711
sea son</w> 3711
z zy</w> 3708
ev ' 3708
elec tri 3708
de o</w> 3707
roa ds</w> 3707
ev o</w> 3706
a hora</w> 3704
S or 3704
ta in 3703
tha ts</w> 3703
gi vin</w> 3701
dru gs</w> 3701
Tal k</w> 3701
le m</w> 3698
ba n</w> 3697
cu z</w> 3697
on y</w> 3695
Pre tty</w> 3694
hi lls</w> 3692
ki ller</w> 3692
ser ve</w> 3692
Qu i</w> 3692
S ti 3687
Fa ther</w> 3685
vo ir</w> 3684
ro of</w> 3681
dra g</w> 3681
John ny</w> 3678
sing in</w> 3677
a man 3676
minu tes</w> 3675
gh ten 3672
war ning</w> 3671
Wa tching</w> 3671
itu de</w> 3669
si e 3666
foo t 3661
ther n</w> 3661
pres sure</w> 3661
o tra</w> 3652
con tra 3652
per i 3649
mo m</w> 3648
tion al</w> 3645
i i 3644
Mi ss</w> 3643
el iness</w> 3639
ac tion</w> 3637
ca lly</w> 3636
le e</w> 3636
reli gi 3636
girl friend</w> 3635
en ded</w> 3631
S et</w> 3630
believ ed</w> 3628
ju dge</w> 3627
neigh bor 3627
F r 3625
min i 3625
sh irt</w> 3624
per son</w> 3624
D ream</w> 3621
ri ous</w> 3619
Mu sic</w> 3618
je tzt</w> 3617
ffer ing</w> 3616
bir th</w> 3615
d ía</w> 3614
ve ins</w> 3614
jo ke</w> 3614
Z e 3610
d ough</w> 3608
under ground</w> 3607
comp li 3605
Y ea</w> 3604
in di 3604
con versa 3603
sy stem</w> 3603
ble ssed</w> 3602
er ra</w> 3600
de j 3599
ten der 3597
tch ed</w> 3597
r ing 3594
c ea 3593
rai sed</w> 3593
a ss</w> 3592
su it</w> 3591
tri ck</w> 3591
f o</w> 3586
kit chen</w> 3585
g l 3584
co at</w> 3577
tra vel</w> 3576
ge or 3573
op ened</w> 3572
R ound</w> 3571
Ameri can</w> 3571
star ting</w> 3569
qu a 3567
cra sh</w> 3567
su rely</w> 3565
hop es</w> 3565
an ti 3564
Th em</w> 3563
cu en 3563
davi d_ 3563
ther ed</w> 3560
n on 3558
ne ce 3558
d ur 3555
it ies</w> 3555
la ce</w> 3555
S on 3554
under neath</w> 3550
g ga 3549
da l</w> 3548
bea ch</w> 3548
r ent</w> 3546
st ones</w> 3545
C har 3544
wi shing</w> 3543
Pu ll</w> 3541
cuer po</w> 3541
ctor y</w> 3541
C ho 3540
en ts</w> 3539
S end</w> 3538
O N</w> 3538
hor iz 3535
ne w 3534
w earing</w> 3533
si de 3532
al le</w> 3531
i ci 3529
st ant</w> 3529
Fri day</w> 3527
ar ti 3526
pro of</w> 3525
fli p</w> 3525
s le 3520
ch ri 3520
noti ce</w> 3520
ar a</w> 3517
or din 3516
mu si 3516
H A 3515
na mes</w> 3515
a in</w> 3514
cur se</w> 3514
bull et</w> 3512
ck - 3511
M ust</w> 3510
v ent</w> 3509
ca ke</w> 3509
dest ru 3503
ck le</w> 3502
Stre et</w> 3502
li a</w> 3500
sla ve</w> 3498
' till</w> 3496
H ot</w> 3495
tt on</w> 3495
buil ding</w> 3494
dire ction</w> 3493
d ue</w> 3492
F ree</w> 3491
ja r</w> 3491
no - 3490
ro ws</w> 3490
oh h</w> 3490
win dows</w> 3487
co ffee</w> 3485
Co mp 3485
qui eres</w> 3485
b ble</w> 3484
C he</w> 3483
si ze</w> 3481
stre ss</w> 3480
ki e</w> 3478
G lo 3477
ba tt 3476
t ear 3475
st ance</w> 3475
re ce 3475
la tely</w> 3469
k _ 3468
an te 3468
ho mie</w> 3468
ko mm 3468
gent le</w> 3468
wor kin</w> 3466
li f 3465
li qu 3463
Co ming</w> 3463
W in 3462
r ying</w> 3460
m elt</w> 3460
lly wood</w> 3459
S ur 3458
b ank</w> 3458
pre sen 3458
I ll</w> 3457
h its</w> 3455
f unk</w> 3455
V E</w> 3453
gr ind</w> 3453
bea st</w> 3452
ca ts</w> 3451
pla ys</w> 3451
ai me</w> 3449
etern ity</w> 3447
i to</w> 3446
of ten</w> 3446
nu est 3444
a gu 3441
a shes</w> 3441
H a</w> 3441
Stra ight</w> 3441
hang in</w> 3439
y ear 3438
yo n 3438
la n</w> 3436
spar k</w> 3435
D eath</w> 3430
reco gni 3429
e sta 3428
Al though</w> 3428
ey ed</w> 3427
under stood</w> 3427
mar k</w> 3426
Fol low</w> 3426
co ps</w> 3425
don 't</w> 3425
me jor</w> 3424
na die</w> 3424
fi gur 3423
scar s</w> 3423
qui en</w> 3422
c lar 3420
eep in</w> 3419
sta irs</w> 3417
s at</w> 3416
ter min 3416
a ts</w> 3415
dru g</w> 3414
rea ching</w> 3412
mb s</w> 3409
wa sting</w> 3408
ll o</w> 3406
M other</w> 3405
de sp 3404
to es</w> 3403
tele phone</w> 3403
pi er 3399
Wh i 3397
h ell</w> 3396
T ook</w> 3395
Do ch</w> 3395
Fal ling</w> 3395
ja il</w> 3394
sh u 3393
Ste p</w> 3391
ri din</w> 3388
har dly</w> 3388
st ream</w> 3382
d is</w> 3381
wi eder</w> 3381
der n</w> 3380
B ir 3379
ha cer</w> 3379
boo ts</w> 3378
mu j 3377
blo wing</w> 3375
B ri 3374
To day</w> 3374
inno cent</w> 3374
wi re</w> 3373
se mp 3371
sho wed</w> 3371
s is</w> 3370
re mains</w> 3368
Wh ich</w> 3368
cha sing</w> 3368
da i 3365
so ci 3364
s ings</w> 3363
si r</w> 3363
ou gh 3361
s so</w> 3360
tur ed</w> 3360
e f 3359
si lly</w> 3359
Ho ly</w> 3355
ma l 3354
Cu z</w> 3353
danger ous</w> 3352
qu er</w> 3348
spo ken</w> 3347
Qu and</w> 3346
T ri 3344
pa ir</w> 3343
for tune</w> 3343
y al</w> 3342
P lu 3340
da h</w> 3340
car ds</w> 3339
happ ening</w> 3339
Ne ed</w> 3339
b bed</w> 3338
strang ers</w> 3337
rain y</w> 3337
T e 3336
Lo s</w> 3336
Ha ppy</w> 3336
poi son</w> 3335
M C</w> 3334
h hh</w> 3332
dan cin</w> 3330
Ge or 3330
ea st</w> 3329
r r 3328
L O 3327
wo ah</w> 3327
ch ts</w> 3326
yo un 3324
dark est</w> 3323
F all</w> 3322
pe t 3320
Fe els</w> 3318
n _ 3317
pan ts</w> 3317
Bea u 3317
v ity</w> 3316
ma ch</w> 3316
sacri fice</w> 3316
wh enever</w> 3315
ex actly</w> 3315
me ine</w> 3314
wo o</w> 3314
a di 3313
hear ted</w> 3313
stra y</w> 3313
H all 3312
can e</w> 3311
Y et</w> 3310
sho p</w> 3310
a side</w> 3309
wor ks</w> 3308
tra s</w> 3308
whi p</w> 3305
mar ried</w> 3304
mi a</w> 3302
de sc 3299
chea p</w> 3299
j am</w> 3298
Hol ding</w> 3298
i de 3296
for d</w> 3296
a ven 3295
an ci 3294
l - 3293
es a</w> 3293
ai re</w> 3291
th ear 3288
el lo</w> 3283
dan n</w> 3283
ma dness</w> 3282
hea ded</w> 3282
re gar 3281
swi m</w> 3281
est as</w> 3280
o ff 3277
b i</w> 3277
D ans</w> 3277
sur r 3275
su per</w> 3274
st on</w> 3273
oo oo 3273
star ing</w> 3273
tru ly</w> 3273
To gether</w> 3273
g g</w> 3272
week end</w> 3271
a vec</w> 3270
p ity</w> 3270
Dar ling</w> 3266
jo hn 3264
K o 3262
pa ss 3262
lu lla 3261
clo wn</w> 3260
Ta king</w> 3259
wan ting</w> 3257
lie f</w> 3256
r inging</w> 3255
f a</w> 3255
vi r 3254
k an</w> 3253
cr y 3245
oo l</w> 3244
ve _ 3243
good night</w> 3243
t é</w> 3240
t ous</w> 3240
wir d</w> 3240
g in 3238
p it 3237
vi lle</w> 3236
expe ct</w> 3236
va te</w> 3235
mi o</w> 3233
ter ri 3232
b or</w> 3228
pur ple</w> 3228
lon eliness</w> 3227
dra ma</w> 3227
fa ded</w> 3221
con migo</w> 3220
ma ls</w> 3218
Blo od</w> 3218
oun ding</w> 3217
chan ces</w> 3216
st in 3215
sa is</w> 3215
ei ther</w> 3215
ve ux</w> 3214
r en</w> 3213
ä n 3213
un o</w> 3213
bir th 3212
wi lling</w> 3210
ck a</w> 3209
lan g</w> 3204
bur y</w> 3202
ac ting</w> 3201
ama zing</w> 3200
H ur 3199
hi m 3198
L ' 3197
si ve</w> 3197
or der</w> 3193
ga tes</w> 3193
de spa 3191
fur ther</w> 3189
wa ter 3188
z er</w> 3186
Th inking</w> 3186
l th</w> 3184
B oo 3184
e star</w> 3183
no te</w> 3181
p ha 3180
uni verse</w> 3179
am i</w> 3178
st ops</w> 3177
ge _ 3177
whi sper 3176
lon ging</w> 3175
flo ws</w> 3175
F ar</w> 3174
den tro</w> 3174
car d</w> 3173
cir cles</w> 3173
sha pe</w> 3172
Su ch</w> 3172
thro at</w> 3172
ba s</w> 3171
bu tter 3170
K a 3167
Ho y</w> 3167
h ung</w> 3166
pu l 3166
af fe 3163
gu es</w> 3162
e o</w> 3161
ha vin</w> 3161
Ri de</w> 3160
o p</w> 3159
se ttle</w> 3158
a da</w> 3157
hon est</w> 3157
less on</w> 3156
dist ant</w> 3153
sha de</w> 3152
p sy 3151
an o 3150
believ ing</w> 3149
an d 3148
hol din</w> 3147
po sse 3146
ma tic</w> 3144
bo ther</w> 3143
le dge</w> 3143
confu sed</w> 3143
Ca ught</w> 3140
t our</w> 3139
H e 3139
guil ty</w> 3139
s ink</w> 3137
bar ely</w> 3136
Ã ¨ 3135
W an 3134
la sting</w> 3133
je ct</w> 3132
b are</w> 3130
á n 3130
p unk</w> 3129
ti cket</w> 3126
bo o</w> 3126
twi sted</w> 3126
Cla us</w> 3126
easi ly</w> 3126
wear y</w> 3125
dra w</w> 3124
Ge tting</w> 3124
ear ed</w> 3123
r y 3121
p se</w> 3121
é e</w> 3120
ho o</w> 3120
E S</w> 3119
ena mor 3119
w are</w> 3118
tu mn</w> 3118
sha med</w> 3117
S ear 3116
T ex 3116
tra cks</w> 3116
Y ou 3114
j our</w> 3114
I T</w> 3114
Wor ds</w> 3114
ani sh</w> 3113
light ning</w> 3113
mi st 3112
wor ried</w> 3110
U na</w> 3108
str ing</w> 3108
con cer 3105
sof tly</w> 3105
ga z 3104
imp re 3103
cla p</w> 3102
wra pped</w> 3101
Hall elujah</w> 3101
w ned</w> 3100
To morrow</w> 3099
qu and</w> 3097
Sol o</w> 3097
c ence</w> 3096
bar s</w> 3096
ug ly</w> 3096
sa u 3095
kan n</w> 3094
ordin ary</w> 3094
F ly</w> 3093
da - 3090
k ness</w> 3088
re ci 3088
le g 3087
con su 3087
é ta 3086
ff in</w> 3086
Y 'all</w> 3084
_ the_ 3082
be came</w> 3081
mon key</w> 3081
Le ts</w> 3079
revo lution</w> 3079
F lo 3078
bu ck</w> 3077
wre ck</w> 3076
cho se</w> 3075
pr en 3075
spe ci 3075
h m</w> 3074
di do</w> 3069
M il 3066
dis ease</w> 3066
a k</w> 3065
mer a</w> 3065
sha king</w> 3064
sa dness</w> 3063
su ffer</w> 3063
Co ld</w> 3063
Ear th</w> 3062
f ed</w> 3061
Tr yin</w> 3061
D enn</w> 3060
lie _ 3059
C 'mon</w> 3058
wa ters</w> 3057
de in</w> 3057
p ers</w> 3054
n et</w> 3053
N O 3052
da m</w> 3052
wr iting</w> 3052
Rea lly</w> 3052
E l 3048
str ings</w> 3046
Ã ¨</w> 3045
sch on</w> 3044
ir ed</w> 3041
W est</w> 3039
lea ds</w> 3039
fri end 3037
car ed</w> 3037
lo ser</w> 3035
th or 3031
ra i</w> 3029
ê me</w> 3027
sa le</w> 3027
for ward</w> 3027
doll ars</w> 3027
G one</w> 3024
cro ssed</w> 3022
cti ve</w> 3020
on a</w> 3019
ve - 3019
Rea l</w> 3019
n an 3017
squee ze</w> 3017
To do</w> 3016
se ts</w> 3015
fro zen</w> 3015
feli z</w> 3015
d less</w> 3013
B l 3013
gu e 3013
o es</w> 3008
ì  3008
bra s</w> 3008
thr one</w> 3008
pi el</w> 3006
or t</w> 3004
2 0 3003
qui ck 3002
ki ssing</w> 3000
V a 2999
si a</w> 2999
d les</w> 2998
be comes</w> 2997
a while</w> 2996
W A 2994
j am 2993
fa mous</w> 2993
heart beat</w> 2990
bu ried</w> 2988
bu lle 2988
ri e 2986
[ * 2985
semp re</w> 2983
ro pe</w> 2982
holi day</w> 2982
di lla 2980
P ea 2978
ha i</w> 2978
po co</w> 2978
ver dad</w> 2977
ee ds</w> 2976
he sit 2976
D ear</w> 2974
tr es</w> 2973
Every day</w> 2973
h in 2971
S to 2970
O . 2969
par ti 2966
i ther</w> 2964
t y- 2963
M any</w> 2963
be gging</w> 2963
ck _ 2963
co m</w> 2962
fr an 2962
qu' on</w> 2961
o we</w> 2959
O K</w> 2957
ta il</w> 2957
fr ank 2957
Mon day</w> 2957
N ex 2956
scre en</w> 2956
bel ongs</w> 2955
f are</w> 2950
wa shed</w> 2947
d et</w> 2945
hol low</w> 2945
heaven ly</w> 2945
rain ing</w> 2944
hur ting</w> 2941
re lease</w> 2940
ja ck</w> 2940
e motion</w> 2937
ll en</w> 2936
le ur</w> 2935
cow boy</w> 2934
Ã ³</w> 2933
s m 2931
th o 2931
resi st</w> 2931
b un 2930
M A 2930
ho tel</w> 2928
igno re</w> 2927
king dom</w> 2926
Wor ld</w> 2925
af fair</w> 2924
C ut</w> 2922
wa its</w> 2919
boo gie</w> 2919
p han 2918
co sa</w> 2918
ang ing</w> 2918
can dle</w> 2918
son t</w> 2918
vi a</w> 2915
dro ve</w> 2915
wan der</w> 2914
fan cy</w> 2914
k ings</w> 2910
M ight</w> 2910
gri p</w> 2907
man o</w> 2906
ha r</w> 2904
plan et</w> 2904
stru ggle</w> 2904
smar t</w> 2903
u su 2902
me di 2901
m í</w> 2900
ref use</w> 2900
ba gs</w> 2899
we dding</w> 2899
ra w</w> 2898
ani c</w> 2897
da me</w> 2895
demon s</w> 2895
pri son</w> 2894
tra ce</w> 2893
ha mmer</w> 2891
l una</w> 2890
U S 2890
a tions</w> 2889
dri ft</w> 2889
aqu í</w> 2889
go s</w> 2886
Bur n</w> 2886
app le</w> 2885
bla st</w> 2884
d it 2882
ge ht</w> 2880
pi llow</w> 2880
har m</w> 2880
hat ers</w> 2880
fa n</w> 2879
ca ge</w> 2878
cru sh</w> 2877
l ers</w> 2876
simp ly</w> 2876
br inging</w> 2875
Nex t</w> 2875
er to</w> 2874
** * 2874
swee test</w> 2873
ide a</w> 2873
ani mal</w> 2870
Sou th</w> 2868
qu é</w> 2867
A l</w> 2864
shel ter</w> 2864
po ol</w> 2863
s ch</w> 2862
ble w</w> 2862
I S</w> 2861
bri ghter</w> 2861
k t</w> 2860
ang ry</w> 2859
b is</w> 2858
thi ck</w> 2858
Rea dy</w> 2857
e m 2856
tel li 2856
se par 2854
ba y</w> 2853
sw ea 2853
K e 2849
faith ful</w> 2849
jun gle</w> 2848
F un 2847
O u 2847
st ro 2847
a mi 2842
_ _ 2839
mar i 2836
v is</w> 2831
th _ 2831
Tru e</w> 2831
destro y</w> 2831
hun ger</w> 2829
son o</w> 2828
ev es</w> 2824
na ch</w> 2823
p he 2821
laugh ed</w> 2821
swee thear 2820
r on 2819
lu z</w> 2819
ol s</w> 2819
S un</w> 2818
Dan cing</w> 2818
la _ 2816
p rea 2815
m end</w> 2815
re spon 2815
fla g</w> 2814
a shamed</w> 2813
B ye</w> 2812
worl ds</w> 2810
conversa tion</w> 2810
ma tch</w> 2809
er o 2808
ba bies</w> 2808
gre ed</w> 2807
con si 2803
p y</w> 2801
D er</w> 2800
de ine</w> 2799
ab an 2799
Ho llywood</w> 2799
E D</w> 2796
vo id</w> 2796
nu mb</w> 2796
i sland</w> 2795
pa le</w> 2795
guar ante 2795
k le</w> 2793
na u 2792
sel ess</w> 2792
th less</w> 2791
ha ce</w> 2791
victi m</w> 2791
spo ke</w> 2790
you re</w> 2787
Ju mp</w> 2786
E N</w> 2783
ve ment</w> 2782
as í</w> 2781
do lor</w> 2780
pro du 2780
com mon</w> 2776
f our 2775
tra p</w> 2775
mon de</w> 2775
swee ter</w> 2774
pra ying</w> 2773
t one</w> 2769
par e 2769
Le ben</w> 2769
chee k</w> 2769
ssi ons</w> 2768
Lon don</w> 2768
S inging</w> 2766
hea d 2766
pa pa</w> 2766
[* ]</w> 2766
it al</w> 2765
Star t</w> 2765
pl enty</w> 2764
att a 2763
sh i</w> 2761
dro wning</w> 2760
viol ence</w> 2760
I mag 2759
W enn</w> 2757
loa ded</w> 2756
z es</w> 2754
ag ree</w> 2754
night mare</w> 2754
har mony</w> 2753
la zy</w> 2751
fu l 2751
nu h</w> 2751
S pr 2746
cri b</w> 2746
jea lous</w> 2746
qu es</w> 2745
senti mental</w> 2740
E lle</w> 2739
sel f- 2739
blo win</w> 2739
sp lit</w> 2738
eter nal</w> 2738
horiz on</w> 2737
a more</w> 2735
smi led</w> 2735
lulla by</w> 2735
er y</w> 2734
fla sh</w> 2734
ri a</w> 2732
mu l 2731
b all 2730
p ear 2729
Gir ls</w> 2729
ar e 2728
oo oh</w> 2727
sw itch</w> 2725
un done</w> 2723
4 0</w> 2721
v et</w> 2720
sa n</w> 2720
bo p</w> 2720
ble i 2720
dan ced</w> 2719
li p</w> 2718
s chi 2717
L au 2717
an a 2716
ro man 2714
ene mies</w> 2713
birth day</w> 2713
pa ce</w> 2712
an te</w> 2711
ci l</w> 2710
fa vor</w> 2709
l à</w> 2708
co p</w> 2708
u h- 2706
de ca 2706
F ran 2705
d ges</w> 2704
1 0 2704
religi on</w> 2704
m ee 2700
ch est 2700
le tters</w> 2700
con ta 2699
co lo 2697
á n</w> 2696
an d_ 2696
Co mme</w> 2695
ta pe</w> 2693
Li e 2693
Be tween</w> 2691
ti p</w> 2689
for th</w> 2689
lear ning</w> 2689
R O 2688
de fin 2687
r é 2686
ali ty</w> 2686
b on</w> 2685
drea min</w> 2685
p i</w> 2684
B er 2684
di re</w> 2684
s car</w> 2682
Co s</w> 2681
fol k</w> 2681
vol ver</w> 2681
easi er</w> 2681
g st</w> 2679
mpa gne</w> 2679
m Ã¡s</w> 2678
ca sa</w> 2678
fami liar</w> 2678
Kno wing</w> 2678
ur es</w> 2677
ad vice</w> 2676
Par is</w> 2675
A sk</w> 2674
re cuer 2674
do ll</w> 2674
him self</w> 2674
Loo kin</w> 2673
pain ted</w> 2673
s even 2671
sin king</w> 2670
h l</w> 2669
sno w 2669
fi st</w> 2668
pu mp</w> 2668
ke in</w> 2668
coun ting</w> 2668
M in 2667
y ne</w> 2665
it er</w> 2665
E yes</w> 2664
se l</w> 2661
el ly</w> 2660
am ong</w> 2659
Fa ce</w> 2659
u re</w> 2658
H ard</w> 2658
ma tion</w> 2658
to gra 2658
pu bli 2658
bur nin</w> 2658
g i</w> 2657
L . 2657
d un 2656
na med</w> 2656
mu tha 2655
Cra zy</w> 2655
t ti 2654
black _ 2651
ja mais</w> 2650
S low</w> 2648
pa n</w> 2647
se ed</w> 2646
sh eets</w> 2646
ra ins</w> 2645
wor n</w> 2645
fu ck</w> 2644
plan ned</w> 2644
tra sh</w> 2642
mo vi 2641
he i 2640
temp o</w> 2640
lo tta</w> 2639
ex ist</w> 2639
H and</w> 2638
e ss 2637
br a</w> 2636
Ho me</w> 2636
cree p</w> 2636
oh- oh</w> 2636
l yin</w> 2634
bi lls</w> 2631
Al one</w> 2630
j er 2627
re - 2627
Wh erever</w> 2625
da ss</w> 2623
de se 2623
Dea d</w> 2623
ab i 2622
mi cro 2621
inno cence</w> 2620
er en</w> 2618
on e- 2618
Tou ch</w> 2618
r t</w> 2617
lyri cs</w> 2617
V e 2616
stan din</w> 2616
regre ts</w> 2616
tri ppin</w> 2615
D es</w> 2613
wit ness</w> 2613
Sl eep</w> 2613
fl at</w> 2612
after noon</w> 2612
P ri 2610
le - 2609
smo kin</w> 2609
tra pped</w> 2608
rest less</w> 2608
se gu 2606
ki cks</w> 2606
despa ir</w> 2606
a ye</w> 2605
S al 2603
stri ke</w> 2602
Hear t</w> 2602
O ut 2600
hi dden</w> 2600
it es</w> 2599
ma le</w> 2599
Bur ning</w> 2599
ta tt 2598
oo - 2597
est i 2595
d al 2594
Ã ª 2593
ent y- 2593
st es</w> 2592
en se</w> 2591
lu i</w> 2591
im my</w> 2591
in vi 2590
re min 2590
li gh 2589
pa la 2589
Dro p</w> 2589
C ru 2588
ch ro 2588
day light</w> 2588
P a</w> 2586
bl an 2585
recogni ze</w> 2585
sa ber</w> 2584
blo wn</w> 2584
5 0</w> 2583
H ou 2582
en i 2581
ho les</w> 2581
do min 2580
tch es</w> 2578
blu e 2577
** *</w> 2577
A c 2576
fra me</w> 2575
dam ned</w> 2573
co a 2571
lo co</w> 2569
le st</w> 2568
j i</w> 2567
L y 2567
c ell</w> 2566
A way</w> 2566
L A 2566
on _ 2566
ha m</w> 2566
be tra 2565
al so</w> 2565
shoo ting</w> 2565
v re</w> 2564
app ear</w> 2563
li ve 2560
i gu 2559
g yp 2558
ver sion 2558
sc ore</w> 2556
v ai</w> 2555
lei gh</w> 2555
muj er</w> 2555
T wi 2554
go ds</w> 2553
be ef</w> 2553
co lli 2552
sa i 2550
tou jours</w> 2549
flo wing</w> 2548
si gh 2547
shar ed</w> 2547
F ive</w> 2546
soldi ers</w> 2546
d der</w> 2545
impo ssible</w> 2544
V en 2543
dro pped</w> 2540
bott les</w> 2539
al bum</w> 2538
co mb 2537
ener gy</w> 2537
Lo ving</w> 2536
in ner</w> 2535
ce iling</w> 2535
dev o 2535
K ill</w> 2534
2 0</w> 2534
drin kin</w> 2534
reme mb 2533
to dos</w> 2532
flo at</w> 2532
boo ks</w> 2531
z in</w> 2529
le ans</w> 2529
ki llin</w> 2529
M as</w> 2528
T old</w> 2528
ca mbi 2528
au tumn</w> 2528
smo king</w> 2528
F ra 2527
con o 2527
sc ue</w> 2527
shoul ders</w> 2527
mon ster</w> 2526
hu stle</w> 2526
S ie</w> 2525
w eep</w> 2524
n y_ 2523
sha des</w> 2523
F ree 2522
wor ked</w> 2522
sen sa 2520
di es 2519
te m</w> 2519
zz le</w> 2519
Ze it</w> 2519
lo ss</w> 2518
en ny</w> 2518
c tly</w> 2517
ous ly</w> 2517
rep eat</w> 2516
tor s</w> 2515
sa c 2513
who se</w> 2512
J un 2510
do me</w> 2510
Plu s</w> 2510
z ar</w> 2509
s lo 2508
' T</w> 2508
Wh e 2508
tra de</w> 2508
i x 2506
ro am</w> 2506
att itude</w> 2506
S itting</w> 2505
B ra 2505
al y 2505
sta ys</w> 2505
fi x 2504
lev el</w> 2503
Tex as</w> 2502
L as</w> 2501
N i</w> 2499
po ppin</w> 2499
cli mb 2499
ro cking</w> 2498
Ea st</w> 2498
e qu 2497
en core</w> 2497
be sos</w> 2496
sto l</w> 2496
é n</w> 2494
chi cks</w> 2493
good - 2493
te a</w> 2492
gener ation</w> 2492
Ã º</w> 2491
Pi ck</w> 2491
ama r</w> 2491
down town</w> 2490
A round</w> 2488
E mp 2488
sun light</w> 2488
en in</w> 2487
di m</w> 2487
dou b 2487
o ffer</w> 2484
rea ched</w> 2484
re vi 2483
pi cked</w> 2483
f oun 2481
sa bes</w> 2481
do or 2480
se h</w> 2480
smo oth</w> 2480
la- la- 2478
g ree</w> 2477
th anks</w> 2477
to wards</w> 2477
celebra te</w> 2476
i 'm</w> 2474
shi ps</w> 2474
con d 2473
lla s</w> 2472
ett es</w> 2472
li ce</w> 2471
di sp 2471
u u 2470
un less</w> 2470
heaven s</w> 2470
ha ts</w> 2469
ta ge</w> 2468
pri l</w> 2468
imag ination</w> 2465
r & 2462
w - 2462
R E 2462
oun ce</w> 2462
pue de</w> 2462
Ha y</w> 2461
sig ned</w> 2461
char ms</w> 2461
r& b</w> 2461
hu st 2460
gli o</w> 2460
F ire</w> 2459
b ly</w> 2459
ni chts</w> 2458
e scu 2457
ad or 2457
att ra 2457
a mb 2456
sh ell</w> 2456
vi l</w> 2456
ir ty</w> 2456
b lon 2453
T er 2453
du de</w> 2453
brea kin</w> 2452
hu man 2452
exi st 2452
Mo st</w> 2451
pre par 2450
preten ding</w> 2450
pi en 2449
no r</w> 2448
be e 2448
si to</w> 2447
poli ti 2445
mi st</w> 2444
te en 2444
fal se</w> 2444
fini sh</w> 2443
M en 2442
D am 2442
al go</w> 2442
ck t</w> 2441
clo sing</w> 2441
chi cken</w> 2440
to y</w> 2439
refle ction</w> 2439
confu sion</w> 2437
care ful</w> 2434
ang in</w> 2432
tri gger</w> 2432
a im</w> 2430
e i</w> 2430
dri fting</w> 2429
tro p</w> 2429
ex tra 2427
sk y 2427
tal ked</w> 2427
a la 2426
s ey</w> 2426
H O 2423
b - 2423
ar me</w> 2423
ma ke 2423
ra te</w> 2423
di e_ 2423
sh a</w> 2423
Wor k</w> 2422
gran d 2422
den n</w> 2419
ho mies</w> 2418
de _ 2418
gu ard</w> 2418
p ou 2417
va is</w> 2417
je sus</w> 2417
chri s_ 2417
so a 2416
r ê 2415
g li</w> 2415
gr ou 2415
Su mmer</w> 2415
ol ly</w> 2413
be e</w> 2412
es se</w> 2412
ha b 2411
re i 2411
to m</w> 2411
Cal ling</w> 2411
he els</w> 2410
Å  2409
ma il</w> 2409
ser ious</w> 2409
hy p 2409
bloo d 2409
cigar ette</w> 2408
mmer time</w> 2408
si ck 2407
k n 2406
ri vers</w> 2406
ch rist 2405
fa des</w> 2405
sp ite</w> 2405
cli ck</w> 2405
fin ding</w> 2404
comple tely</w> 2404
hall elujah</w> 2404
n early</w> 2403
In stead</w> 2403
ob se 2403
drin ks</w> 2403
wor ship</w> 2401
du l 2401
n es</w> 2400
v est</w> 2399
La dy</w> 2399
Pea ce</w> 2399
bed room</w> 2398
sweethear t</w> 2398
D est 2396
ma gaz 2396
sil en 2396
v ac 2395
Beau tiful</w> 2395
la d</w> 2394
i k</w> 2393
lan ds</w> 2393
ar my</w> 2392
sh er</w> 2392
est y</w> 2392
ss i</w> 2391
or ig 2389
ter i 2389
A fri 2387
do ve</w> 2387
hor ses</w> 2387
qu oi</w> 2386
Ch ange</w> 2386
ber ry</w> 2386
su ffering</w> 2385
on er</w> 2384
wo - 2384
í as</w> 2383
sa li 2383
cu te</w> 2383
Bro ken</w> 2383
H un 2382
be in</w> 2382
clu e</w> 2382
da do</w> 2381
na ils</w> 2381
ab y 2381
sy mpa 2381
j ones</w> 2380
mel ess</w> 2378
Ca tch</w> 2377
confe ss</w> 2376
mb lin</w> 2374
da _ 2373
ll en 2372
D ont</w> 2371
ca s</w> 2371
grea ter</w> 2370
Que en</w> 2370
w ounds</w> 2368
tin y</w> 2368
j ur 2367
c lean 2365
pla y 2364
Ca me</w> 2363
n - 2362
ma ker</w> 2362
se tting</w> 2362
mb led</w> 2362
sun rise</w> 2362
st as</w> 2361
S el 2359
Some how</w> 2359
' S</w> 2358
Sh ine</w> 2358
hi ps</w> 2356
bill y_ 2356
tra ge 2355
b ill</w> 2354
ro lled</w> 2353
sun set</w> 2353
so lu 2352
qu ando</w> 2352
ste pped</w> 2352
screa ms</w> 2352
B eat</w> 2351
la me</w> 2351
sh ou 2348
tch in</w> 2348
en joy</w> 2347
tri cks</w> 2347
p are</w> 2345
exc use</w> 2344
pu shing</w> 2343
m é 2342
era se</w> 2342
l er 2341
de - 2341
illu sion</w> 2341
M Y</w> 2339
cre te</w> 2339
u ma</w> 2338
pla yer</w> 2337
hel p 2336
dilla c</w> 2336
R A 2334
rea ding</w> 2334
ve ces</w> 2334
po ckets</w> 2333
ja g</w> 2333
M r</w> 2332
b y 2330
pa sses</w> 2329
di e 2328
lea ther</w> 2328
cri min 2328
C ry</w> 2327
lo ve 2326
Sa me</w> 2325
thir d</w> 2325
a unque</w> 2324
co sas</w> 2324
l angu 2323
cor n</w> 2322
mar ry</w> 2321
f ought</w> 2320
tal ly</w> 2319
si ón</w> 2318
pu lling</w> 2318
su e</w> 2317
ir o</w> 2317
cr iti 2316
s leigh</w> 2315
d ings</w> 2315
la ke</w> 2314
po in 2314
bla de</w> 2314
di sco</w> 2312
tr unk</w> 2312
dr a</w> 2311
W elt</w> 2310
A T</w> 2310
fing er 2310
apo logi 2310
qu est</w> 2309
m ême</w> 2308
Bro wn</w> 2308
ê tre</w> 2306
kno cking</w> 2306
ll ev 2306
go o 2305
liqu or</w> 2305
thro wn</w> 2304
si sters</w> 2303
aw are</w> 2303
f en</w> 2302
de di 2302
po e 2302
ec sta 2302
mu cho</w> 2300
kne e</w> 2300
d man</w> 2299
a k 2298
v ' 2298
n y 2298
y ea 2297
wi lli 2297
ar ds</w> 2296
S an</w> 2295
fi lls</w> 2294
Hea d</w> 2294
big gest</w> 2292
Lea ving</w> 2291
e cho</w> 2290
A la 2290
w ow</w> 2289
m our 2288
mi en 2288
pi ù</w> 2288
vo z</w> 2288
Mi ster</w> 2287
ner vous</w> 2287
thr u</w> 2287
destru ction</w> 2287
version ]</w> 2286
P ra 2285
ma sk</w> 2285
pres ence</w> 2285
sa do</w> 2284
ba l</w> 2284
s word</w> 2283
D i</w> 2283
j et</w> 2283
è s</w> 2282
P r 2281
ri ot</w> 2280
vo i 2280
men ti 2279
Every where</w> 2278
ho l</w> 2277
tur nin</w> 2275
flo ating</w> 2275
t ang 2274
I . 2274
con tr 2274
sc ha 2274
pi lls</w> 2274
de man 2272
emo tions</w> 2272
si p</w> 2271
anci ent</w> 2271
s m</w> 2269
Ta g</w> 2268
a pa 2267
g loo 2267
L A</w> 2267
sy mp 2267
re fu 2266
e cho 2264
la la 2264
re ven 2263
pla stic</w> 2263
qu it 2261
ga ther</w> 2261
tra il</w> 2261
est á</w> 2260
a o</w> 2259
bra ins</w> 2258
C ri 2256
W ar 2255
le c 2255
recor ds</w> 2255
thu gs</w> 2255
trea sure</w> 2254
T ears</w> 2253
up side</w> 2253
fu me</w> 2251
D en 2250
pla ya</w> 2250
Be hind</w> 2250
lu gar</w> 2249
electri c</w> 2249
z um</w> 2248
U sed</w> 2248
nu ts</w> 2248
cho sen</w> 2248
l lor 2247
arri ve</w> 2247
ght ly</w> 2246
Tal king</w> 2246
o' clock</w> 2242
z o 2241
A cross</w> 2241
re scue</w> 2241
g ut</w> 2240
ti enes</w> 2240
mi ssin</w> 2240
cu ts</w> 2240
bu mp</w> 2239
Su re</w> 2239
re ck 2238
sa ving</w> 2235
or i 2234
sp in 2233
lou der</w> 2233
fa is</w> 2232
comp ro 2232
boy friend</w> 2232
bo ca</w> 2231
f it 2228
sa be</w> 2227
di d 2227
do l 2225
sch en</w> 2225
emb ra 2225
sal vation</w> 2225
sac red</w> 2225
co me 2224
su a 2224
ne on</w> 2223
nes see</w> 2223
tr ed</w> 2222
cha mpagne</w> 2222
deci ded</w> 2221
la ck</w> 2220
sc or 2220
ñ os</w> 2219
tin ess</w> 2219
supp ose</w> 2219
nor th</w> 2219
dru ms</w> 2217
in se 2216
Li vin</w> 2216
fashi on</w> 2216
bo ws</w> 2215
less ly</w> 2215
geor ge_ 2215
mi l</w> 2214
rela x</w> 2213
posit ion</w> 2213
C A 2212
bb ing</w> 2212
bb er</w> 2212
para de</w> 2212
to ps</w> 2211
in die</w> 2209
pra yers</w> 2209
squ are</w> 2208
lun gs</w> 2208
a is</w> 2207
b in 2207
Ã ¹</w> 2207
au x</w> 2207
dri f 2207
ag es</w> 2206
c ling</w> 2204
s ang 2203
pu tting</w> 2203
char m</w> 2203
quar ter</w> 2202
vi el</w> 2201
sc ent</w> 2200
ph y 2200
fore ign</w> 2200
pe u</w> 2199
I T 2198
G r 2197
hear ing</w> 2195
aw ful</w> 2194
wa h</w> 2192
a in 2191
cou l 2191
her oes</w> 2191
D es 2190
[ live 2190
S it</w> 2188
bor ed</w> 2187
am ar 2186
gent ly</w> 2186
g _ 2185
high est</w> 2185
pho togra 2184
ma cht</w> 2183
fa ir 2183
watch in</w> 2183
pa - 2182
ear n</w> 2181
sha wty</w> 2181
W ord</w> 2180
know ledge</w> 2180
wi pe</w> 2179
din ner</w> 2179
coraz on</w> 2179
t ando</w> 2178
m ba 2178
pla ced</w> 2178
tu ally</w> 2178
v ita</w> 2177
sp ine</w> 2177
tea se</w> 2176
y y 2175
si es</w> 2175
fo is</w> 2175
O k 2174
in - 2174
crea te</w> 2174
ex p 2173
dr ank</w> 2171
s st</w> 2170
B out</w> 2170
ac tin</w> 2170
D ou 2169
ë  2169
la mb</w> 2169
Drea ms</w> 2169
li ked</w> 2168
gr in 2168
sea sons</w> 2168
w rap</w> 2167
on e 2167
ra ppers</w> 2167
pe st</w> 2167
nu mbers</w> 2167
o tro</w> 2166
gu sta</w> 2166
igu al</w> 2166
re l</w> 2165
pour ing</w> 2163
v ar 2161
p ink</w> 2161
ba se 2161
woo ds</w> 2161
bb in</w> 2160
Gi ving</w> 2160
di go</w> 2159
dri vin</w> 2159
Sor ry</w> 2158
i lu 2157
san ds</w> 2157
Go in</w> 2157
deni ed</w> 2157
i mage</w> 2156
r y_ 2156
C ro 2156
car i 2156
car ried</w> 2156
Wi ld</w> 2156
Par ty</w> 2156
No thin</w> 2155
ent es</w> 2154
justi ce</w> 2154
do o 2153
Wa r</w> 2153
aa aa 2153
mis mo</w> 2153
sm ith</w> 2153
an ts</w> 2151
Sp eak</w> 2151
w rist</w> 2150
K E</w> 2148
sna ke</w> 2148
Ben z</w> 2148
ba d 2147
temp tation</w> 2147
ti ger</w> 2146
mon ths</w> 2146
wa king</w> 2145
ro s</w> 2145
Hi gh 2145
1 2</w> 2143
te ful</w> 2143
tri es</w> 2143
O ff</w> 2142
st el 2142
r ar 2141
on o</w> 2141
lea ding</w> 2141
m bo 2140
A d 2140
st ol 2140
lo gy</w> 2140
ba ila 2140
St ea 2140
con science</w> 2138
impor tant</w> 2138
r i</w> 2137
ni e 2137
Me mor 2137
f s</w> 2136
G ran 2136
la ying</w> 2136
go ver 2136
pa cked</w> 2135
Sh ut</w> 2134
cour t</w> 2134
a ms</w> 2133
sp ring 2132
me l</w> 2131
mother fuckin</w> 2130
be so</w> 2129
mor tal</w> 2127
se x 2126
ir d</w> 2126
bea ms</w> 2126
bli ss</w> 2126
F oo 2124
Ge ttin</w> 2122
t ary</w> 2121
S hor 2120
en _ 2120
wi ll 2119
sk u 2119
mu d</w> 2118
e igh 2117
m eat</w> 2117
in em</w> 2117
mo mento</w> 2117
v ou 2116
ecsta sy</w> 2116
F our</w> 2115
co ke</w> 2114
Na cht</w> 2114
re pea 2113
pi stol</w> 2113
Bi lly</w> 2113
t it 2112
Whe ther</w> 2112
satis fy</w> 2111
ga ze</w> 2110
ev' ry</w> 2110
ri e</w> 2108
est re 2108
a ching</w> 2107
under standing</w> 2107
trou bled</w> 2107
dri ves</w> 2106
to ast</w> 2104
gra m</w> 2104
T - 2103
ho lla</w> 2103
Po p</w> 2103
prote ct</w> 2103
ca go</w> 2102
ce ful</w> 2102
wol f</w> 2102
r at</w> 2101
W il 2101
D irty</w> 2100
C ol 2099
ha ps</w> 2099
So y</w> 2099
crea tion</w> 2099
c ci</w> 2098
ex peri 2098
i do</w> 2097
m u</w> 2097
da mage</w> 2097
k er 2096
ye ux</w> 2096
hea ding</w> 2095
par ents</w> 2095
men tion</w> 2095
Al right</w> 2095
the m 2094
fri ghten 2094
senti r</w> 2094
pri vate</w> 2093
ven ess</w> 2093
R ev 2092
j ar 2091
ir on</w> 2091
Dar k</w> 2091
th ou</w> 2088
ri o</w> 2088
do - 2088
dar te</w> 2088
Ra in</w> 2087
shor ty</w> 2087
C H 2086
T en</w> 2085
A s 2084
ni ck 2084
Qu ' 2084
pu shed</w> 2083
bulle ts</w> 2083
cir cu 2082
i ses</w> 2081
Pi c 2080
compla in</w> 2080
D - 2079
ever lasting</w> 2079
pi es</w> 2079
ha unt</w> 2078
con crete</w> 2078
sha ttered</w> 2078
mie do</w> 2078
y i 2077
bri dges</w> 2077
it self</w> 2076
gran ted</w> 2076
O hh</w> 2075
it e 2075
deci sion</w> 2075
hon or</w> 2073
ha st</w> 2072
ri cane</w> 2072
wel ve</w> 2072
se qu 2071
so lution</w> 2070
por t</w> 2070
E lla</w> 2069
sta ying</w> 2069
impor ta</w> 2069
sor t</w> 2068
vo s</w> 2067
s .</w> 2066
ro lls</w> 2065
ser a</w> 2065
for est</w> 2064
shel f</w> 2064
aban don 2063
for gi 2062
vi sions</w> 2062
A u</w> 2061
vi lla 2061
sk in 2060
Spr ing</w> 2060
j ingle</w> 2059
ar re 2059
we pt</w> 2059
1 00</w> 2058
ac cept</w> 2058
b st</w> 2057
al _ 2057
whi stle</w> 2057
An gel</w> 2057
o bli 2056
to o 2056
ea ting</w> 2055
go d 2053
mon th</w> 2053
la w 2052
C li 2050
la h</w> 2050
har dest</w> 2050
bri ck</w> 2050
stri p</w> 2049
sha kin</w> 2048
af ford</w> 2047
ba jo</w> 2046
de pre 2046
any time</w> 2046
Tal kin</w> 2046
v ow</w> 2045
Ra p</w> 2045
p et</w> 2044
ph er 2044
D re 2043
kno ckin</w> 2043
ne u 2043
O F</w> 2042
th le 2041
gi bt</w> 2041
as si 2041
jo hn</w> 2040
Lon ely</w> 2040
Hop ing</w> 2039
pal m</w> 2039
orig in 2039
Ja ck 2038
neighbor hood</w> 2038
p te 2037
d yin</w> 2036
F er 2035
li mit</w> 2034
emp tiness</w> 2034
sl ee 2033
lan d 2033
wee ks</w> 2033
sho ok</w> 2032
Sa ying</w> 2032
r on</w> 2031
J ones</w> 2030
di an</w> 2030
Gra b</w> 2030
M c 2029
ju mpin</w> 2029
J er 2028
an a_ 2028
ma in 2028
a a</w> 2027
b unch</w> 2027
re mix</w> 2027
ly n</w> 2027
ght ers</w> 2026
no- one</w> 2026
ra di 2025
cra shing</w> 2025
je w 2025
y ah</w> 2024
vi ctory</w> 2024
h em</w> 2023
m c 2023
z ero</w> 2022
go - 2022
to da</w> 2022
h it 2021
in spira 2021
ki d 2021
quer er</w> 2021
S en 2020
K an 2019
J a</w> 2019
ti ps</w> 2019
ba ma</w> 2019
sta ck</w> 2019
Sear ching</w> 2019
mar ch</w> 2018
i ze</w> 2017
sp ee 2017
S tri 2016
Gre en</w> 2016
S even</w> 2014
É </w> 2014
wor ries</w> 2013
De ce 2013
Be ing</w> 2012
in fin 2011
en ch</w> 2010
Bo ys</w> 2010
sa i</w> 2009
vi ous</w> 2008
gran de</w> 2007
figur ed</w> 2007
B low</w> 2006
bel le</w> 2006
se m</w> 2005
cra wling</w> 2005
a h- 2004
F o 2002
ll t</w> 2002
ki es</w> 2002
sho wing</w> 2002
qui ere</w> 2001
E T</w> 2000
chee se</w> 2000
o ch</w> 1999
st - 1999
se tt 1999
ja ck 1999
H ang</w> 1998
ma ll</w> 1998
su mmertime</w> 1998
cho ke</w> 1998
w itch</w> 1997
na - 1997
O R</w> 1996
E r 1996
tal ks</w> 1996
fir es</w> 1996
cou rage</w> 1996
ã  1994
ca mp 1994
la ws</w> 1994
gr in</w> 1994
ster n</w> 1994
Star s</w> 1994
car a</w> 1992
ssi on 1992
her self</w> 1992
B al 1991
cry stal</w> 1991
M on</w> 1990
T out</w> 1990
reali zed</w> 1990
ru b</w> 1989
ffi c</w> 1989
phy si 1989
crea ted</w> 1987
langu age</w> 1987
r ange</w> 1986
le g</w> 1986
to ys</w> 1985
movi es</w> 1985
k ra 1984
J ane</w> 1984
tran s 1984
thi ef</w> 1983
gyp sy</w> 1983
s p</w> 1982
in ch</w> 1982
them selves</w> 1982
ver te</w> 1981
frank _ 1979
G H 1977
en ter</w> 1976
ev a 1976
ir es</w> 1976
ey - 1976
mm in</w> 1976
pra cti 1976
Li l</w> 1975
G ro 1974
Ha te</w> 1974
ll ers</w> 1972
v ou</w> 1971
s wal 1971
l y_ 1971
com mand</w> 1971
sol ve</w> 1971
k al 1970
g ni</w> 1970
be i 1970
sp here</w> 1970
gho sts</w> 1970
H en 1969
f use</w> 1969
fa ut</w> 1969
sho ck</w> 1969
milli ons</w> 1969
col der</w> 1968
S qu 1967
mi ster</w> 1967
chro me</w> 1967
w ound</w> 1966
ta me</w> 1966
nor mal</w> 1966
ra pper</w> 1965
separ ate</w> 1964
J immy</w> 1963
o ce 1962
B A 1961
ang s</w> 1961
Co min</w> 1961
er on</w> 1960
ha ze</w> 1960
hea ling</w> 1960
Han ds</w> 1960
gh te 1959
free ze</w> 1959
pati ence</w> 1959
a qui</w> 1958
g le 1958
mo ti 1958
ex tra</w> 1957
tri ste</w> 1957
va mos</w> 1957
soci ety</w> 1956
i do 1955
bo x 1955
S pe 1954
ba cks</w> 1954
cro o 1954
big _ 1954
g ree 1952
dra wn</w> 1952
whe ther</w> 1952
Fun ny</w> 1952
n ear 1951
z - 1951
flo od</w> 1951
Lie be</w> 1951
en ces</w> 1950
vi o 1950
s ung</w> 1949
a c</w> 1947
ma gi 1947
quick ly</w> 1947
cra w 1946
spea king</w> 1946
kno cked</w> 1945
sen ses</w> 1944
. _ 1943
Di amon 1943
Chi l 1942
S wi 1940
sa m</w> 1940
publi c</w> 1940
war m 1939
Geor gia</w> 1939
S hi 1937
f ence</w> 1937
I ve</w> 1937
re bel</w> 1937
surpri sed</w> 1937
a ah</w> 1935
cher ry</w> 1935
pa ges</w> 1934
la ss</w> 1933
ch é</w> 1933
tal es</w> 1933
ling er</w> 1933
ph y</w> 1931
mil k</w> 1931
t our 1930
h mm</w> 1930
un to</w> 1929
com for 1929
ac he</w> 1927
cla i 1927
di g 1926
don _ 1926
v u</w> 1925
s its</w> 1925
b ride</w> 1925
K en 1925
g lea 1925
W ent</w> 1925
wi shes</w> 1925
hop eless</w> 1925
I mp 1924
si dent</w> 1924
pte mber</w> 1924
a ce</w> 1923
s mel 1923
hu g</w> 1923
Ly ri 1923
man os</w> 1922
vi vo</w> 1921
sho e</w> 1921
a da 1920
N e</w> 1920
e ine</w> 1919
hyp noti 1919
s ando</w> 1918
Be yond</w> 1918
fa cts</w> 1917
ju ice</w> 1917
ent ine</w> 1916
bel ly</w> 1916
pla te</w> 1915
ig nor 1915
j an 1914
ke ine</w> 1913
ü ck</w> 1912
mo dern</w> 1911
Fu ll</w> 1911
ri ghts</w> 1910
L or 1909
twi light</w> 1909
el ing</w> 1908
drea mer</w> 1908
Hal f</w> 1907
mi li 1906
z er 1905
ner ve</w> 1905
frea ky</w> 1905
dri ver</w> 1904
Car ry</w> 1904
g lu 1903
pri son 1903
I o</w> 1902
cro ss 1902
camin o</w> 1902
sc he</w> 1901
mar ching</w> 1901
ha tred</w> 1900
Si x</w> 1900
affe ction</w> 1900
P au 1899
Me et</w> 1899
k - 1898
an che</w> 1898
for mation</w> 1898
lu re</w> 1898
tw enty- 1898
k y 1897
J ah</w> 1897
pu is</w> 1897
help less</w> 1897
t earing</w> 1896
sa ck</w> 1896
de scri 1896
e mer 1895
fle w</w> 1895
gent le 1895
j ou 1894
deci r</w> 1894
bo b_ 1893
n ing 1892
D evil</w> 1891
L and</w> 1891
E - 1891
explo de</w> 1891
prepar ed</w> 1891
haun ting</w> 1890
B ru 1889
den ti 1889
eu ch</w> 1889
n u</w> 1888
Ra ise</w> 1888
o der</w> 1887
Ã ª</w> 1886
in fe 1886
lou sy</w> 1886
G - 1885
ul ti 1885
re ver 1884
bab y 1884
or y</w> 1883
six teen</w> 1883
y le</w> 1882
prea cher</w> 1882
A hora</w> 1881
ea u</w> 1881
tur a</w> 1881
mi ento</w> 1880
Mer ry</w> 1880
Dr ink</w> 1880
W H 1879
-O - 1878
la i 1878
al co 1878
de light</w> 1878
pre ci 1878
Ten nessee</w> 1878
s ers</w> 1877
R ise</w> 1877
da de</w> 1877
ru in</w> 1877
Wo man</w> 1877
b id</w> 1876
R each</w> 1876
YO U 1876
d y_ 1875
in na</w> 1875
re ign</w> 1875
per d 1874
mar y</w> 1874
llo rar</w> 1873
nuest ro</w> 1872
fu ego</w> 1871
Pu sh</w> 1871
bu ddy</w> 1870
pr ince</w> 1870
Di s 1870
ci on</w> 1869
tu tto</w> 1869
e ffe 1867
O ooh</w> 1867
ñ a</w> 1867
se hen</w> 1867
oo m</w> 1866
tro du 1866
K in 1865
d' un</w> 1865
mother fu 1865
z ar 1864
ra il 1864
sli pping</w> 1864
ri sk</w> 1863
ci Ã³n</w> 1863
per fume</w> 1863
hur ricane</w> 1863
fo cus</w> 1863
Pa pa</w> 1862
ma p</w> 1860
p y 1859
c it 1859
n ment</w> 1858
M mm</w> 1858
B on 1858
P en 1858
some time</w> 1858
Ca dillac</w> 1858
w oul 1857
z i</w> 1857
te ch 1857
le urs</w> 1855
comp ar 1855
Tr ust</w> 1855
cen tra 1855
a ver 1854
sw ell</w> 1854
éta it</w> 1854
in _ 1853
ho st</w> 1853
con ce 1853
symp hon 1853
ha bit</w> 1852
par ts</w> 1852
Ã± o</w> 1852
sho wn</w> 1851
W ha 1850
ti re</w> 1850
sh eep</w> 1849
ear th 1849
ba i 1848
s ou</w> 1847
G O 1847
sur es</w> 1847
wea pon</w> 1847
scra tch</w> 1846
k le 1845
ff o 1845
u sing</w> 1844
ç ão</w> 1844
di p</w> 1844
Li ft</w> 1843
T ro 1841
A b 1841
i i</w> 1839
bi le</w> 1838
olvi dar</w> 1838
hr en</w> 1838
o ù</w> 1837
me dic 1837
bo l 1837
Da ys</w> 1837
z os</w> 1836
A t 1836
A pril</w> 1836
ta x 1836
Pla ying</w> 1836
& _ 1835
sa iling</w> 1835
fa iled</w> 1835
sel ling</w> 1835
co vers</w> 1834
tt ed</w> 1834
sk et</w> 1834
tender ness</w> 1834
p ill</w> 1833
Ã º 1833
pa z</w> 1833
Si empre</w> 1833
p it</w> 1832
ha bla 1832
c lin 1831
co de</w> 1831
cha el</w> 1831
Sp ir 1831
Or leans</w> 1831
d t</w> 1830
T ú</w> 1830
Sou l</w> 1829
i dea 1828
or chest 1828
nu evo</w> 1828
run away</w> 1828
Loo ks</w> 1827
se u 1826
so ir</w> 1826
pa y 1826
war ri 1826
cur tain</w> 1826
thro wing</w> 1826
S y 1825
ro t</w> 1825
ver sion</w> 1825
Su per 1825
dis cover</w> 1824
imag in 1824
pp i</w> 1823
Feel in</w> 1823
a mp 1822
pen sar</w> 1822
warm th</w> 1822
G ol 1821
pp a</w> 1821
ri d</w> 1820
fini shed</w> 1820
t le</w> 1819
t su 1819
ca li 1819
tra ffic</w> 1819
St .</w> 1819
Ang els</w> 1819
youn ger</w> 1819
v it 1818
ba th</w> 1818
S crea 1817
3 0</w> 1817
ci pa 1817
pi ano</w> 1817
A pp 1816
N ah</w> 1816
la sts</w> 1816
clear ly</w> 1816
wea kness</w> 1815
ti ck</w> 1814
swi mming</w> 1814
f ou 1813
B roo 1813
co al</w> 1813
ta li 1813
ad d</w> 1813
komm t</w> 1813
P hi 1812
gi le</w> 1812
pur pose</w> 1812
a ss 1811
a hh</w> 1811
Y esterday</w> 1811
ab a</w> 1811
gi f 1809
secon ds</w> 1808
A unque</w> 1807
qui era</w> 1807
che er</w> 1807
crow ded</w> 1807
Nor th</w> 1807
F ac 1806
cha p 1806
Un less</w> 1806
F le 1805
t ment</w> 1805
Don de</w> 1805
r er</w> 1804
li m 1804
sp are</w> 1804
lea f</w> 1804
ig n 1804
b ent</w> 1803
g ers</w> 1803
po ssi 1803
coraz Ã³n</w> 1803
exist ence</w> 1803
tu de</w> 1802
Wo ah</w> 1801
pati ent</w> 1800
Su ddenly</w> 1799
A gain</w> 1797
ge hen</w> 1797
com pa 1797
desper ate</w> 1797
Under neath</w> 1797
ca mera</w> 1795
el ls</w> 1795
ne m</w> 1795
vi d</w> 1795
st les</w> 1794
win ner</w> 1794
g gi 1793
T w 1793
ä u 1793
va r</w> 1793
*** *</w> 1793
o w 1792
see ds</w> 1792
D O</w> 1790
tou ching</w> 1790
wei ß</w> 1790
fa ced</w> 1789
hear s</w> 1788
gr ant</w> 1788
Di me</w> 1788
Tel ling</w> 1788
ch eat</w> 1786
ang ed</w> 1786
nu it</w> 1786
T ried</w> 1785
Le e</w> 1785
di sc 1784
pen a</w> 1784
an e 1783
S in 1782
p tion</w> 1782
c ta 1782
G ar 1781
sympa thy</w> 1781
N ão</w> 1780
qu el 1780
pra yed</w> 1780
every time</w> 1779
cli p</w> 1779
fif ty</w> 1779
E S 1778
se u</w> 1778
bloo m</w> 1778
bri cks</w> 1777
Mi d 1777
C ou 1776
do t</w> 1775
Wi e</w> 1775
ba m</w> 1774
so le</w> 1774
fol lowed</w> 1774
e o 1773
ó lo</w> 1773
e mos</w> 1772
qu ero</w> 1772
roo ms</w> 1772
cru ci 1772
dece i 1772
c ' 1771
A ll 1771
bo m</w> 1771
for ty</w> 1771
bi e</w> 1771
sin c 1771
ki lls</w> 1770
br o</w> 1770
whisp ers</w> 1770
micro phone</w> 1770
de ux</w> 1769
st un 1768
F ight</w> 1767
stan tly</w> 1767
o s 1766
h en 1765
g ment</w> 1765
fa ction</w> 1765
gra de</w> 1765
p unch</w> 1764
R app 1764
ba th 1762
sou s</w> 1761
on i 1760
lo sin</w> 1760
sa vior</w> 1760
bor der</w> 1760
s ni 1759
bu bble</w> 1758
sou r 1758
screa min</w> 1758
t is</w> 1757
ro le</w> 1757
slee ve</w> 1756
it 's</w> 1755
forgi veness</w> 1755
c œ 1754
it ty</w> 1754
ex cept</w> 1754
tor e</w> 1754
ri ghte 1753
dai ly</w> 1753
sensa tion</w> 1753
k et</w> 1752
D ' 1752
vi s_ 1752
po i</w> 1752
mb ra</w> 1752
ac cu 1751
du st 1751
bel la</w> 1751
t ue</w> 1750
E V 1750
fal ta</w> 1750
nau ghty</w> 1750
F ill</w> 1749
al la</w> 1749
Sa w</w> 1749
qu' il</w> 1749
B one</w> 1748
U m</w> 1748
mi ly</w> 1748
war s</w> 1747
E res</w> 1746
t Ãº</w> 1745
so m 1744
can to</w> 1744
ri der</w> 1743
Glo ry</w> 1743
Di os</w> 1742
[live ]</w> 1742
so la</w> 1741
ju mped</w> 1741
a x 1740
f its</w> 1740
C O 1739
be lief</w> 1739
ce ed</w> 1739
sur face</w> 1739
noti ced</w> 1739
f Ã¼ 1738
U N 1738
tro s</w> 1738
C ool</w> 1737
da le</w> 1737
fin ds</w> 1737
tea cher</w> 1737
ke _ 1736
u es</w> 1735
yo r 1735
spir its</w> 1735
shoul da</w> 1735
Chil dren</w> 1735
í  1734
pu ttin</w> 1733
Imag ine</w> 1733
inspira tion</w> 1733
T y 1732
char ge</w> 1732
sleep in</w> 1732
h ö 1731
í o</w> 1731
al arm</w> 1731
ssi ve</w> 1731
roo ts</w> 1731
Bla ck 1730
invi sible</w> 1730
n de</w> 1729
bur den</w> 1729
reven ge</w> 1729
e qui 1728
L over</w> 1728
en se 1728
pri ze</w> 1728
an der 1727
dan cer</w> 1727
A bo 1726
tu al</w> 1726
t welve</w> 1724
lo on</w> 1724
sho wer</w> 1724
a to</w> 1723
d urch</w> 1723
bor e</w> 1723
No s</w> 1723
far e 1723
w ears</w> 1722
it ation</w> 1722
Memor ies</w> 1722
co ol 1721
co late</w> 1721
ta bles</w> 1721
fa v 1721
o be 1720
an n 1720
lea der</w> 1720
S A 1719
me - 1718
car a 1718
ki cked</w> 1717
ther es</w> 1717
exc ited</w> 1717
colli de</w> 1717
ca p</w> 1716
fa sc 1716
sli pped</w> 1716
A m 1715
so o 1715
Sta r</w> 1715
rev ea 1715
g ent</w> 1714
L ying</w> 1713
cra cks</w> 1713
go ts</w> 1712
wha ts</w> 1712
k eepin</w> 1711
co lla 1711
sn ea 1711
willi ams</w> 1711
a le</w> 1710
h st</w> 1710
C i 1710
C e</w> 1710
E as 1710
en en</w> 1710
ro ck 1710
ri bb 1710
n ever 1709
I ce</w> 1709
ing er</w> 1709
Par a 1709
M exi 1708
E L 1708
inten tions</w> 1708
pa so</w> 1707
in ted</w> 1706
in ven 1706
ra p 1706
fu i</w> 1706
fol lowing</w> 1706
al a</w> 1704
de mon</w> 1703
Brea king</w> 1703
v ul 1702
en cia</w> 1701
li p 1700
ber t</w> 1700
la ted</w> 1699
Lea d</w> 1699
itu al</w> 1699
sp la 1697
hu sh</w> 1697
bl unt</w> 1696
b at</w> 1695
origin al</w> 1695
d j 1694
Ja mes</w> 1694
u seless</w> 1692
Qu ando</w> 1691
sy n 1691
def eat</w> 1691
bi lity</w> 1690
fru it</w> 1689
Dece mber</w> 1689
o i 1688
igh s</w> 1688
n st</w> 1687
ta lity</w> 1687
sole dad</w> 1687
e ux</w> 1686
al low</w> 1686
gl ance</w> 1686
trage dy</w> 1686
Vo y</w> 1684
T emp 1683
we e</w> 1683
ho m 1682
dea dly</w> 1682
ter ed</w> 1682
Bo dy</w> 1682
por ch</w> 1682
hesit ate</w> 1682
p anic</w> 1681
wh ir 1681
mm ed</w> 1681
ta mbi 1680
son _ 1680
cen ter</w> 1680
gan z</w> 1680
a vi 1679
w ä 1679
F ound</w> 1678
re i</w> 1678
blin ded</w> 1677
Lou is</w> 1677
lif ted</w> 1677
s wore</w> 1676
g el 1676
da mn</w> 1676
win ning</w> 1676
Ri ding</w> 1676
ster eo</w> 1676
C ur 1675
ni e_ 1675
su l 1675
po der</w> 1675
Ma kin</w> 1675
en cuen 1674
gri ef</w> 1674
el vis_ 1673
me ssed</w> 1673
don na</w> 1673
shin in</w> 1673
Ten go</w> 1673
T . 1672
T ' 1672
fl yin</w> 1672
S che 1671
ca stle</w> 1671
par te</w> 1671
ex tre 1671
H or 1670
do te</w> 1670
er e 1669
gla dly</w> 1669
sma sh</w> 1669
I- I- 1669
1 1</w> 1668
v est 1667
yo n</w> 1667
Ha pp 1667
E sta</w> 1665
l' amour</w> 1665
stol en</w> 1665
B a</w> 1664
R ose</w> 1664
sal t</w> 1664
cy cle</w> 1664
Eas y</w> 1664
y ' 1663
ste ppin</w> 1663
ad van 1663
D I 1662
N O</w> 1662
sle pt</w> 1662
bla ze</w> 1661
sw it 1661
Ga ve</w> 1661
viol ent</w> 1660
wor thy</w> 1659
year ning</w> 1659
n ings</w> 1658
cha os</w> 1657
da w 1656
ki ckin</w> 1656
sto pping</w> 1656
sho t 1656
Ro lling</w> 1656
ck les</w> 1655
P er</w> 1654
ho mbre</w> 1654
de w</w> 1654
milli on 1653
vi be</w> 1652
sor e</w> 1652
do se</w> 1651
con vi 1651
blo s 1651
sur round</w> 1651
tin um</w> 1650
ê te</w> 1649
te _ 1648
nee dle</w> 1648
B le 1647
co ok</w> 1647
Sh out</w> 1647
Ki ck</w> 1647
Da me</w> 1647
S imp 1646
Smo ke</w> 1646
baila r</w> 1646
ir ts</w> 1643
mm ers</w> 1643
sta in</w> 1642
cor a 1642
good- bye</w> 1642
S . 1641
e te</w> 1641
C han 1641
N unca</w> 1641
pen ny</w> 1641
re wind</w> 1640
s ó</w> 1639
g y 1639
medic ine</w> 1638
d v 1637
soli d</w> 1637
gloo m</w> 1637
M en</w> 1636
B . 1636
D O 1636
be m</w> 1636
yon der</w> 1636
B - 1633
Do ing</w> 1633
is se</w> 1633
f ans</w> 1632
C in 1632
ci el</w> 1632
- a</w> 1631
th rea 1631
Abo ve</w> 1631
[ # 1630
ha ben</w> 1630
ri r</w> 1630
con ten 1630
n el 1629
so lation</w> 1629
thir ty</w> 1629
ch _ 1628
Bro ther</w> 1628
ON E</w> 1627
La dies</w> 1626
Sha wty</w> 1626
Won der</w> 1626
gg s</w> 1625
Pro mise</w> 1625
gen d 1624
t wo- 1623
ri des</w> 1623
so ber</w> 1623
La te</w> 1623
Every time</w> 1623
Hear d</w> 1623
bo ld</w> 1622
fa c 1622
es day</w> 1622
stu mble</w> 1622
h et</w> 1621
B an 1621
ì  1621
Mar ia</w> 1621
n g</w> 1620
U ne</w> 1620
ton s</w> 1620
shar p</w> 1620
s ev 1619
Pa in</w> 1619
en ga 1617
di os</w> 1617
clou dy</w> 1617
ssi ssi 1616
Run nin</w> 1616
re ss</w> 1615
op in 1615
Out side</w> 1615
Dri ve</w> 1614
devo tion</w> 1614
r are</w> 1613
a stray</w> 1613
Ch rist 1613
F an 1612
F ear</w> 1612
v ani 1612
K eeps</w> 1612
ta ils</w> 1612
fi cial</w> 1612
tur y</w> 1612
ch ers</w> 1611
mi m</w> 1611
er ta</w> 1610
ma mi</w> 1610
sa telli 1610
va ge</w> 1610
up er</w> 1610
tan a</w> 1610
k lyn</w> 1609
z ie</w> 1609
ff le</w> 1609
ban ds</w> 1609
chor us</w> 1609
C E</w> 1608
E h</w> 1608
no i</w> 1608
sin ner</w> 1608
comp are</w> 1608
g lau 1607
sa l</w> 1607
mi ll</w> 1607
Brea the</w> 1607
G reat</w> 1606
cla ssi 1606
d Ã© 1605
B U 1605
con stant</w> 1605
man kind</w> 1605
min ha</w> 1605
Ha sta</w> 1605
ma ti 1604
app roa 1604
ro ller</w> 1603
sto mach</w> 1603
pea ceful</w> 1603
sti cks</w> 1602
stru ck</w> 1602
g at</w> 1601
in y</w> 1600
ma j 1600
bi a</w> 1600
Co mes</w> 1600
Ben eath</w> 1600
du ck</w> 1599
ble ss 1599
bal lin</w> 1599
T A 1598
pi do</w> 1598
guarante e</w> 1598
no m</w> 1597
wa y 1597
en contra 1597
gu ts</w> 1597
m ite</w> 1596
c - 1595
sel fish</w> 1595
Ch or 1595
r ors</w> 1594
YOU R</w> 1594
a ld</w> 1592
sa int</w> 1592
ter ror</w> 1592
cou p</w> 1592
beli ever</w> 1592
tar de</w> 1592
V al 1591
bra u 1591
e du 1590
to tal</w> 1590
pro vi 1590
Sp anish</w> 1590
i ll 1589
sh o</w> 1589
Ri ver</w> 1589
rece ive</w> 1589
p el 1588
in stru 1587
Ho p</w> 1587
Ni gga</w> 1587
H uh</w> 1586
stor my</w> 1586
butter fly</w> 1586
d eep 1585
ar a 1584
bea m</w> 1584
bur st</w> 1584
m eets</w> 1583
mu m</w> 1583
te x 1583
trea ted</w> 1583
i sh</w> 1582
C lu 1582
S no 1581
S ur</w> 1581
Be st</w> 1581
gra vity</w> 1581
he it</w> 1581
den s</w> 1581
R EA 1580
cre di 1580
fare well</w> 1580
M y 1579
gi or 1579
ex press</w> 1579
Fin ally</w> 1578
p ti 1577
li ze</w> 1577
be es</w> 1577
cor a</w> 1577
sl eeps</w> 1577
back wards</w> 1577
fra gile</w> 1576
Her z</w> 1576
ar ra 1575
en tra 1575
to wer</w> 1575
ex cu 1575
soli tude</w> 1575
mul ti 1575
t less</w> 1574
to - 1574
ein en</w> 1574
e z</w> 1572
me s 1572
sl ey</w> 1572
can 't</w> 1572
oh ne</w> 1572
rev eal</w> 1572
g era 1571
G er 1571
con tent</w> 1571
c en</w> 1570
A . 1570
L D</w> 1570
in trodu 1570
pu ts</w> 1570
whisper ed</w> 1570
B ill</w> 1569
ti erra</w> 1569
Broo klyn</w> 1569
V ol 1568
ra g</w> 1568
foo led</w> 1568
w hat 1567
ba se</w> 1567
for given</w> 1567
cho ir</w> 1567
que da</w> 1567
Sho ot</w> 1567
pu pp 1566
far m</w> 1566
dan do</w> 1565
i ent</w> 1564
G old</w> 1564
0 00</w> 1564
Th in 1564
dr o</w> 1564
fon d</w> 1564
t win 1563
s way</w> 1563
N 'T</w> 1563
an tes</w> 1563
on ing</w> 1563
ca mb 1563
ea gle</w> 1562
pro phe 1562
Tr ou 1562
compro mise</w> 1562
i e 1561
K u 1561
ro b</w> 1561
a pr 1560
pa sa</w> 1560
hi stor 1560
je cts</w> 1560
Gu cci</w> 1560
n ur 1559
O ver 1559
fel las</w> 1559
haun ted</w> 1559
Ok ay</w> 1559
ê ° 1558
ma ster 1558
ge e</w> 1558
pre gun 1558
bri gh 1558
de mo 1557
pro me 1557
crimin al</w> 1557
in '</w> 1556
ko mm</w> 1556
speci ally</w> 1556
ß t</w> 1555
cœ ur</w> 1555
ki ssin</w> 1553
mon do</w> 1553
e ur</w> 1552
hip - 1552
lo in</w> 1551
vi bra 1551
fru stra 1551
b u</w> 1550
st oned</w> 1550
guil t</w> 1550
W E</w> 1549
bu zz 1549
sou thern</w> 1549
St or 1549
gen s</w> 1549
ough ta</w> 1549
O l 1548
in i</w> 1548
de sign</w> 1548
st ly</w> 1547
chi llin</w> 1547
ref rain</w> 1547
gover nment</w> 1547
z ur 1546
B et</w> 1546
ro ar</w> 1546
ch ant</w> 1546
fi ghts</w> 1546
ho ller</w> 1545
po le</w> 1545
hoo ked</w> 1544
b ang</w> 1543
co tton</w> 1543
D . 1542
I hr</w> 1542
pa pers</w> 1542
mo del</w> 1542
est s</w> 1542
o il</w> 1541
ee - 1541
Th ou 1541
è res</w> 1540
col our</w> 1540
she pher 1540
ci as</w> 1539
cra dle</w> 1539
go al</w> 1538
de c 1538
mix ed</w> 1538
ssissi ppi</w> 1538
D A 1537
spea ks</w> 1537
aven ue</w> 1537
usu al</w> 1537
su dden</w> 1536
ci es</w> 1536
com m 1536
cor re 1536
l end</w> 1535
san e</w> 1535
in e 1534
su fri 1534
b b</w> 1533
en ten 1533
le y_ 1533
cou ch</w> 1533
cl ever</w> 1533
al li 1532
po l 1531
we h</w> 1531
sp l 1530
man i</w> 1530
Mo ving</w> 1530
[ dv 1529
ba h</w> 1528
ne ga 1528
la p</w> 1527
di o 1527
qui eras</w> 1527
glo rious</w> 1527
fro wn</w> 1527
po st</w> 1526
sear chin</w> 1526
Ch ev 1525
D ev 1524
st _ 1524
ra pp 1524
Co mm 1524
Ex cept</w> 1524
a tes</w> 1523
Bo bby</w> 1523
thle hem</w> 1523
wh y'all</w> 1522
chi e</w> 1522
bl ink</w> 1522
dep end</w> 1522
M r 1521
Car ol 1521
heart break</w> 1521
F ro 1520
le jos</w> 1520
vi deo</w> 1520
ac ci 1520
tal s</w> 1520
tor ture</w> 1520
S har 1519
gla sses</w> 1519
dre w</w> 1519
u re 1518
o m 1518
la tions</w> 1518
ma teri 1517
for med</w> 1517
Mi ke</w> 1517
Mexi co</w> 1517
z _ 1516
al g 1516
pa- rum</w> 1516
ar ise</w> 1514
al i</w> 1514
si era</w> 1514
M - 1513
ß e</w> 1513
ha tin</w> 1513
ra do</w> 1513
vol ver 1513
T an 1512
ve il</w> 1512
jo e</w> 1512
friend ly</w> 1512
re gu 1511
h re</w> 1510
al ty</w> 1510
J une</w> 1509
ta mb 1509
am en</w> 1509
cre dit</w> 1509
Ä ±</w> 1508
ca lor</w> 1508
ba ge</w> 1508
ne _ 1508
ú n</w> 1507
do e</w> 1507
wea lth</w> 1507
wha tcha</w> 1507
suc cess</w> 1507
v ey</w> 1506
u ps</w> 1506
b our 1506
bu zz</w> 1506
inde ed</w> 1506
C ross</w> 1505
Sa vior</w> 1505
can dles</w> 1505
ffer ed</w> 1505
TH AT</w> 1505
y i</w> 1504
ff s</w> 1504
pa ys</w> 1503
po w 1503
qui to</w> 1503
wa ist</w> 1502
gra in</w> 1502
[dv d 1502
T ear</w> 1501
Su gar</w> 1501
La tely</w> 1501
eng ine</w> 1501
stru gg 1501
magaz ine</w> 1501
Sh ining</w> 1500
list ened</w> 1500
symphon y</w> 1500
F ren 1499
lo o</w> 1499
ri ches</w> 1499
rea l 1499
man u 1499
cha r</w> 1499
vel vet</w> 1499
ER E</w> 1499
GH T</w> 1499
Ä  1498
sp ending</w> 1498
pi pe</w> 1498
car ess</w> 1498
Lyri cs</w> 1498
ro cket</w> 1497
re place</w> 1497
sk a</w> 1497
che mi 1497
a migo</w> 1496
o g</w> 1496
ch y</w> 1496
mo an</w> 1496
bit ter 1496
é es</w> 1495
ma ss</w> 1495
ani mals</w> 1495
ma ñ 1494
mb les</w> 1494
cigar ettes</w> 1494
a . 1493
f ear 1493
C re 1493
Th y</w> 1493
le ment</w> 1493
br en 1493
good b 1493
s ant</w> 1492
ha cer 1492
hearta ches</w> 1492
Free dom</w> 1491
f r</w> 1490
or o</w> 1490
al though</w> 1490
f way</w> 1489
be ware</w> 1489
we g</w> 1489
shi eld</w> 1489
Pa ss</w> 1489
dy na 1489
rea ction</w> 1488
bur nt</w> 1487
a b</w> 1486
H anging</w> 1486
ë § 1486
tu a</w> 1486
gr a</w> 1486
pr o</w> 1486
hi ll 1485
Ca p 1485
r ite</w> 1484
sa ge</w> 1484
ba - 1484
tu mble</w> 1484
mira da</w> 1484
fil m</w> 1484
T ired</w> 1483
hh hh</w> 1483
n ut</w> 1482
sp ill</w> 1482
Po or</w> 1482
Stu ck</w> 1482
cru mble</w> 1481
A mor</w> 1480
or i</w> 1480
ma jor</w> 1480
vi ento</w> 1480
sta ined</w> 1480
Star ing</w> 1480
man s</w> 1479
gra teful</w> 1479
ph ones</w> 1479
on i</w> 1478
ro de</w> 1478
re present</w> 1478
sa ints</w> 1478
me o</w> 1478
nece ss 1478
NO W</w> 1478
ro mp 1477
ra is</w> 1477
croo ked</w> 1477
in ci 1476
deli ver</w> 1476
foot steps</w> 1476
y n</w> 1475
D em</w> 1475
cu lt</w> 1475
as i</w> 1475
tel evi 1475
cur a</w> 1475
gan as</w> 1475
sleep y</w> 1475
po pu 1474
i sed</w> 1473
du es</w> 1473
bb y_ 1473
W ind</w> 1472
bi li 1472
chi m 1472
a mor 1471
ta g</w> 1471
su it 1471
per der</w> 1471
bor row</w> 1471
dee pest</w> 1471
orchest ra</w> 1471
ro tten</w> 1470
bu g</w> 1469
E v' 1468
an za</w> 1468
re de 1468
mar es</w> 1468
cur ity</w> 1468
app reci 1467
Tr an 1467
destin o</w> 1467
ton k</w> 1466
U se</w> 1465
di sh</w> 1465
all - 1465
gui en</w> 1465
ver ti 1464
com mit 1464
vo is</w> 1464
ble ssing</w> 1464
Mo mma</w> 1464
g it 1463
Ã ¥ 1463
E in</w> 1463
sp er</w> 1463
bru sh</w> 1463
neighbor s</w> 1463
fu era</w> 1462
a yer</w> 1461
I mma</w> 1461
un true</w> 1461
ra cing</w> 1461
te e</w> 1460
person al</w> 1460
t light</w> 1459
sti an</w> 1459
i ste</w> 1458
U pon</w> 1458
Win ter</w> 1458
recuer do</w> 1458
segu ir</w> 1458
n ou 1457
we il</w> 1457
i si 1456
S E</w> 1456
s cious</w> 1456
ye h</w> 1456
at mo 1456
shi ft</w> 1455
bon d</w> 1455
r te</w> 1454
a y 1454
n Ã£o</w> 1454
vi a 1454
good ness</w> 1454
thir st</w> 1454
é n 1453
bi os</w> 1453
san ta</w> 1453
auto matic</w> 1453
S ea 1452
ì § 1452
la mp</w> 1452
ci ones</w> 1452
ja me</w> 1452
seven teen</w> 1452
Tur ning</w> 1451
Ã ²</w> 1450
de ck</w> 1450
dr en 1450
fin est</w> 1450
par king</w> 1449
happ i 1448
sen ten 1448
shin y</w> 1448
m ers</w> 1447
ha ted</w> 1447
tear drops</w> 1447
M ur 1446
T i</w> 1446
A i 1446
ha ting</w> 1446
ma ck</w> 1446
oo doo</w> 1446
chi ps</w> 1446
under stands</w> 1446
Ki lling</w> 1446
jun to</w> 1446
Drea ming</w> 1446
tu mbling</w> 1445
- up</w> 1444
' Till</w> 1444
do w 1444
disa ster</w> 1444
S wee 1443
vi sit</w> 1443
po wer 1443
mb er 1443
squ ad</w> 1443
fai ry</w> 1443
win d 1442
oce ans</w> 1442
for tun 1441
ab er</w> 1441
s wept</w> 1440
so cial</w> 1440
for ced</w> 1440
cho colate</w> 1440
Mo i</w> 1440
cep tion</w> 1440
mutha fu 1440
E nd</w> 1439
ga inst</w> 1439
the tic</w> 1439
Ju ly</w> 1439
M ind</w> 1438
en de</w> 1438
ju mping</w> 1438
won ders</w> 1437
Sp end</w> 1437
di zzy</w> 1436
bu tt 1436
san ity</w> 1436
lar ge</w> 1436
compli cated</w> 1436
de ja</w> 1435
hur tin</w> 1435
chil d 1435
pear ls</w> 1435
shot gun</w> 1435
bea u</w> 1434
cha mp 1434
h in</w> 1433
ent re 1433
an cora</w> 1432
po ssible</w> 1432
cen tury</w> 1432
i cy</w> 1431
wi shed</w> 1431
hu mble</w> 1431
ru bber</w> 1430
F igh 1429
p ons</w> 1429
To p</w> 1429
S H 1428
ca used</w> 1428
sp li 1428
Se en</w> 1427
er u</w> 1426
st rea 1426
ad way</w> 1426
ó s</w> 1425
ra ging</w> 1425
hea lth</w> 1425
hu m</w> 1425
bre ed</w> 1425
B E 1424
Ã  1424
A qu 1424
di al</w> 1424
d rain</w> 1423
g ru 1423
mor ir</w> 1423
In ter 1423
par ted</w> 1422
Ã© s</w> 1422
u mb 1421
g ust</w> 1421
W oo</w> 1421
re minds</w> 1421
hu s 1421
bal ance</w> 1421
Ã Â 1421
w eeping</w> 1420
P ray</w> 1420
se o</w> 1420
u hh</w> 1419
E vil</w> 1419
est ás</w> 1419
eu l</w> 1419
ctor s</w> 1419
tender ly</w> 1419
sa fe 1418
al o</w> 1418
ph ra 1418
sea l</w> 1418
sche me</w> 1417
fashi oned</w> 1417
ce - 1416
ce tte</w> 1416
Won dering</w> 1416
ca be 1415
fa ch</w> 1415
alco hol</w> 1415
un kind</w> 1414
Li ghts</w> 1414
B itch</w> 1413
G he 1413
ri sa</w> 1413
ve o</w> 1413
comp ren 1413
g ando</w> 1411
B aby 1411
i d 1410
M emp 1410
de pen 1409
ru de</w> 1409
pu lls</w> 1409
bit ches</w> 1409
Sil ent</w> 1409
Z i 1408
sa g</w> 1408
pa ble</w> 1408
ey e 1408
sli ppin</w> 1408
agu a</w> 1408
terri ble</w> 1408
C rea 1406
li fel 1406
su g 1406
ever more</w> 1406
pla tinum</w> 1406
deca y</w> 1406
F ai 1405
fo g</w> 1405
stri kes</w> 1404
mix ]</w> 1404
bo bby_ 1403
con quer</w> 1403
win ding</w> 1403
y ang</w> 1402
L in 1402
cer tain 1402
hip- hop</w> 1401
U p 1400
ga la 1400
te sti 1400
sw inging</w> 1400
ho tter</w> 1399
mu sc 1399
sc are</w> 1399
tu m</w> 1399
war n</w> 1399
Se ptember</w> 1399
satis faction</w> 1399
break fast</w> 1398
in vol 1397
spe ct</w> 1397
wonder land</w> 1397
ena de</w> 1397
h ound</w> 1396
K ar 1395
Ti mes</w> 1395
silen cio</w> 1395
e pi 1394
hop in</w> 1394
C K</w> 1393
si go</w> 1393
de spi 1393
inde pen 1393
Char lie</w> 1393
b oul 1392
U ni 1392
contin ue</w> 1392
a chi 1391
mo ts</w> 1391
gr o</w> 1391
Wi thin</w> 1391
Dam n</w> 1391
s Ã©</w> 1390
b ba</w> 1390
tra ins</w> 1390
tu do</w> 1389
il t</w> 1389
oc cu 1389
disapp o 1389
whisper ing</w> 1389
L E</w> 1388
mira cles</w> 1388
Any time</w> 1388
apologi ze</w> 1388
sp ire</w> 1387
the me</w> 1387
D E</w> 1386
En ough</w> 1386
at ely</w> 1386
sp u 1385
bea t 1385
Da vid</w> 1384
r d</w> 1383
a sh 1383
é m</w> 1383
' Bout</w> 1383
ra c 1383
gre en 1383
Do ctor</w> 1383
Pu es</w> 1383
E mb 1382
sa lu 1382
ter n 1382
dri p</w> 1382
doub ts</w> 1382
A LL</w> 1381
Bo th</w> 1381
** ** 1381
no tes</w> 1380
b lea 1379
nee ding</w> 1379
du ele</w> 1378
hun t</w> 1378
rail road</w> 1378
i ma</w> 1377
ni es</w> 1377
Ma g 1377
J ingle</w> 1376
ri pped</w> 1376
c hard</w> 1375
in e_ 1375
rea rr 1375
bor ing</w> 1375
R est</w> 1374
wil low</w> 1374
physi cal</w> 1374
mo de</w> 1373
cor ners</w> 1373
plu g</w> 1373
in va 1371
re jo 1371
ba il 1371
ex pre 1371
blo cks</w> 1371
kin dness</w> 1371
Tu esday</w> 1371
hand some</w> 1371
Mid night</w> 1371
se du 1370
ta d</w> 1370
ch t 1369
sho ve</w> 1369
hel ps</w> 1369
c ities</w> 1368
x ie</w> 1368
Ã ¥</w> 1368
ser vice</w> 1368
Ro llin</w> 1368
Ju li 1368
kno win</w> 1367
sp or 1367
k on 1366
st rain</w> 1366
lo cal</w> 1366
s_ of_ 1366
Fri ends</w> 1366
Th ro 1365
oun t</w> 1365
ten er</w> 1365
T own</w> 1364
mi sty</w> 1364
qu al 1364
Dar lin</w> 1364
contin u 1364
n an</w> 1363
d le 1363
â  1363
ti le</w> 1363
to das</w> 1363
ta do</w> 1363
clo set</w> 1363
divi de</w> 1363
ameri ca</w> 1363
H y 1362
Ã  1362
en contr 1362
ther ing</w> 1361
H ill</w> 1360
li er</w> 1360
spin nin</w> 1360
C rying</w> 1359
su its</w> 1359
car eless</w> 1359
over come</w> 1359
jew els</w> 1359
do g 1358
Th anks</w> 1358
cal le</w> 1358
hel ping</w> 1357
travel ing</w> 1357
frea ks</w> 1357
s ever 1356
no mbre</w> 1356
Li e</w> 1356
T hats</w> 1355
E E 1355
foo ling</w> 1355
Qu é</w> 1355
Hi de</w> 1355
roman tic</w> 1355
a tr 1354
we ird</w> 1354
Mi chael</w> 1354
Sil ver</w> 1354
Thin kin</w> 1354
k ling</w> 1353
as kin</w> 1353
hel ped</w> 1353
pr ints</w> 1353
Chi cago</w> 1353
R E</w> 1352
ha u 1352
lo ca</w> 1352
di stra 1352
pro gre 1352
At lan 1352
colle ge</w> 1351
vi our</w> 1350
c lay</w> 1349
bu ll</w> 1349
bu tter</w> 1349
Ã ¢ 1348
bo t</w> 1348
cea ble</w> 1348
prison er</w> 1348
or tun 1347
sa it</w> 1347
ee k</w> 1347
to _ 1347
lar k</w> 1347
Chi ld</w> 1347
e en</w> 1346
Li es</w> 1346
n 'est</w> 1345
O h- 1345
N ice</w> 1345
bo wl</w> 1345
cap tain</w> 1345
i us</w> 1344
mon o 1344
tu o</w> 1344
Ch ri 1344
gre et</w> 1344
hon ey 1344
H i</w> 1343
bo thered</w> 1343
bu sh</w> 1343
tro l</w> 1343
Hou se</w> 1343
ho w 1342
Tr yna</w> 1342
sole il</w> 1342
ha lo</w> 1341
si ppin</w> 1341
bu l 1341
ste pping</w> 1341
che z</w> 1341
' cha</w> 1340
W I 1340
sh r 1340
for getting</w> 1340
pri est</w> 1340
Memp his</w> 1340
we i</w> 1338
l ä 1336
N one</w> 1336
no ches</w> 1336
do y</w> 1335
star dust</w> 1335
part ment</w> 1335
con temp 1334
chi ck 1334
j ive</w> 1333
pi mpin</w> 1333
sli ps</w> 1333
Mu ch</w> 1333
Tho u</w> 1333
alle in</w> 1333
li ons</w> 1332
ke box</w> 1332
Mo on</w> 1332
Pau l</w> 1332
dj _ 1332
S lowly</w> 1331
b ear 1331
Shor ty</w> 1331
li ghter</w> 1330
ch eri 1330
hou ses</w> 1330
De li 1330
N - 1329
sen ding</w> 1329
den ts</w> 1329
righte ous</w> 1329
bless ings</w> 1329
S ittin</w> 1328
hal f- 1328
ar ro 1327
ge h</w> 1327
ki mi</w> 1327
ce ment</w> 1327
ski p</w> 1327
P ay</w> 1326
Lo se</w> 1326
k k 1325
s day</w> 1325
M I 1325
S na 1324
S mile</w> 1324
to ll</w> 1324
qu o 1324
bi l 1324
Si ck</w> 1324
shar ing</w> 1324
B O 1323
si ghts</w> 1323
wan dering</w> 1323
bel t</w> 1323
glo wing</w> 1323
Wor king</w> 1323
pala bras</w> 1323
b ind</w> 1322
ca do</w> 1322
for sa 1322
glo ri 1322
cir cus</w> 1322
Y u 1321
wonder ed</w> 1321
dist ur 1321
sp ray</w> 1320
V en</w> 1319
ch te</w> 1319
tr ance</w> 1319
gre es</w> 1319
mel low</w> 1319
ma sh</w> 1318
oun d 1318
sli ck</w> 1318
Au f</w> 1318
Q U 1317
vi ene</w> 1317
bro ad</w> 1317
des de</w> 1317
sleep less</w> 1317
comm uni 1317
co lor 1316
tt a 1316
ye - 1316
ver ed</w> 1315
photogra ph</w> 1315
S pi 1314
S am</w> 1314
or ange</w> 1314
scho ol 1314
usu ally</w> 1314
atmo sphere</w> 1314
pre mi 1313
u mp 1311
ki cking</w> 1311
ton _ 1311
th ank 1310
vi en 1310
brea ker</w> 1310
ob vious</w> 1310
Ã§ a</w> 1310
da- da- 1310
p uni 1309
A .</w> 1309
Wi shing</w> 1309
mañ ana</w> 1309
h ittin</w> 1308
ge on</w> 1308
ra b 1307
cree ping</w> 1307
sick ness</w> 1307
spl end 1307
M ir 1306
la test</w> 1306
ga le</w> 1306
par ano 1306
base ment</w> 1306
z za</w> 1305
Mi ssissippi</w> 1305
fl ee 1305
cond iti 1305
ne st</w> 1304
can _ 1304
En gli 1304
I ls</w> 1303
Ca sh</w> 1303
wol ves</w> 1303
rece i 1303
pet it</w> 1303
´ s</w> 1302
mp tion</w> 1302
bu tton</w> 1302
ah _ 1302
k el 1301
c use</w> 1301
R el 1301
mo tor</w> 1301
run g</w> 1301
arri ved</w> 1301
ho s</w> 1300
sta cks</w> 1300
Li sa</w> 1300
cha u 1300
e sc 1299
ma c</w> 1299
co pe</w> 1299
ru g</w> 1299
mea dow</w> 1299
o . 1298
pa sar</w> 1298
to i 1297
mo vement</w> 1297
uh- huh</w> 1297
hal t</w> 1296
z as</w> 1295
´ t</w> 1295
ß en</w> 1295
la bios</w> 1295
da tion</w> 1295
perfe ction</w> 1295
Bir ds</w> 1295
bath room</w> 1295
t v</w> 1294
V I 1294
ru s</w> 1294
gu er 1294
stea ling</w> 1294
For give</w> 1294
mea sure</w> 1294
Fre sh</w> 1294
l ur 1293
ou i</w> 1293
se ul</w> 1293
e ta</w> 1292
ha bit 1292
ck ey</w> 1292
cou sin</w> 1292
T or 1291
un ts</w> 1291
mi cha 1291
su pre 1291
Ca da</w> 1291
lie st</w> 1291
dream t</w> 1291
Emp ty</w> 1291
D é 1290
E r</w> 1289
al lowed</w> 1289
confi dence</w> 1289
gh ing</w> 1288
sou l 1288
bl ank 1288
part ner</w> 1288
tatt oo</w> 1288
lip stick</w> 1288
a tra</w> 1287
ì  1287
est ly</w> 1287
han ded</w> 1287
mo mmy</w> 1286
ch in 1285
desi res</w> 1285
leg end</w> 1285
mi ra</w> 1284
mo thers</w> 1284
s le</w> 1283
di men 1283
san d 1283
batt le 1283
Ca r</w> 1282
bi lli 1282
Tru th</w> 1282
ar ing</w> 1281
sel y</w> 1281
cho ices</w> 1281
Do o</w> 1281
believ es</w> 1281
rou te</w> 1281
in si 1280
super star</w> 1280
d Ã­a</w> 1279
W ra 1279
A gainst</w> 1279
1 5</w> 1279
bu cks</w> 1279
jo y 1279
who m</w> 1279
An yone</w> 1279
b ene</w> 1278
E u 1278
si ren 1278
per di 1278
chim ney</w> 1278
a ds</w> 1277
D re</w> 1277
mo tor 1277
pi cal</w> 1277
En tre</w> 1277
temp le</w> 1276
fai lure</w> 1276
fu ss</w> 1275
destin ation</w> 1275
less ons</w> 1275
komm en</w> 1275
y ell</w> 1274
U . 1274
me dia</w> 1274
Ge e</w> 1274
et y- 1274
teen age</w> 1274
b y_ 1273
P as 1273
cu i 1273
Sa ys</w> 1273
Who se</w> 1273
O oo</w> 1272
to ss</w> 1272
de sa 1272
bar rel</w> 1272
vuel ve</w> 1272
d ing 1271
l ee 1271
clo wns</w> 1271
du re</w> 1271
fr ente</w> 1271
ous ness</w> 1271
la yin</w> 1270
cu ore</w> 1270
Har lem</w> 1270
tt _ 1269
vi ve</w> 1269
man do</w> 1269
laugh s</w> 1269
raz or</w> 1269
fif teen</w> 1269
G od 1268
con centra 1268
par don</w> 1268
sla m</w> 1268
kar a</w> 1268
Di g</w> 1267
F OR</w> 1266
p _ 1266
n ea 1266
s nu 1266
' ne</w> 1266
ha il</w> 1266
st ir</w> 1266
Th ee</w> 1266
we b</w> 1266
sha llow</w> 1266
Chor us</w> 1266
Î ± 1265
stre tch</w> 1265
o- o- 1265
Kno ck</w> 1265
ple a</w> 1265
la- la</w> 1265
concer ned</w> 1265
pa sado</w> 1264
aman e 1264
Spir it</w> 1264
a de</w> 1263
S I 1263
E ve</w> 1263
it os</w> 1263
con stantly</w> 1263
ter re</w> 1263
Sa d</w> 1263
od ds</w> 1263
cru ise</w> 1263
En g 1263
conne cted</w> 1263
t at</w> 1262
a ma</w> 1262
J im</w> 1262
de gree</w> 1262
insan ity</w> 1261
e un</w> 1260
ra ts</w> 1260
pe ut</w> 1260
hy po 1260
hal fway</w> 1260
fea ther</w> 1260
ban ks</w> 1259
pue des</w> 1259
m at</w> 1258
to oth</w> 1258
Au gen</w> 1258
bill _ 1258
b ling</w> 1257
mar ket</w> 1257
emp e 1257
comp et 1257
travel ed</w> 1257
A ye</w> 1256
R hy 1256
fi sh 1256
Some thin</w> 1256
w u 1255
ho es</w> 1255
qu esto</w> 1255
ff ed</w> 1255
su m</w> 1254
lu de</w> 1254
P our 1253
me ssin</w> 1253
to mb 1253
ta u 1253
ti er</w> 1252
ll et</w> 1252
bi ke</w> 1252
ser ved</w> 1252
Des de</w> 1252
descri be</w> 1252
p lot</w> 1251
con ven 1251
star light</w> 1251
vo lu 1251
Pic ture</w> 1251
idea s</w> 1251
p out</w> 1250
Ã ¤</w> 1250
po pping</w> 1250
Al most</w> 1250
kin ds</w> 1250
aver age</w> 1250
S mi 1249
l thy</w> 1249
in formation</w> 1249
glo ck</w> 1249
olvi do</w> 1249
Hear ts</w> 1249
surr ounded</w> 1249
e x</w> 1248
D el</w> 1248
ca ma</w> 1248
sel lin</w> 1248
dau ghters</w> 1248
p id</w> 1247
G ang 1247
ti cking</w> 1247
ge ment</w> 1247
bl ank</w> 1247
R ing</w> 1246
th ighs</w> 1246
de i</w> 1246
po wers</w> 1246
cra ve</w> 1246
sen za</w> 1246
fle x</w> 1246
Me in</w> 1246
Afri ca</w> 1246
frighten ed</w> 1246
B lin 1245
t ank</w> 1244
E stoy</w> 1244
V u 1244
fla shing</w> 1244
Gu ar 1244
Sti ck</w> 1244
p ounds</w> 1243
d ey</w> 1243
d nt</w> 1243
k r 1242
be tta</w> 1242
con na 1242
cuen ta</w> 1242
lo wer</w> 1241
ci an</w> 1241
Bla me</w> 1241
hus band</w> 1241
u m 1240
j as</w> 1240
be hold</w> 1240
fi lling</w> 1240
ear ned</w> 1240
con sequ 1240
mu ero</w> 1240
au tre</w> 1240
up set</w> 1240
excu ses</w> 1240
in i 1239
qu em</w> 1239
wea pons</w> 1239
squ era 1239
f ee 1238
L - 1238
per dido</w> 1238
m eal</w> 1237
ra ppin</w> 1237
E at</w> 1236
S E 1235
f ant</w> 1235
plan es</w> 1235
ein er</w> 1235
S ab 1234
w i</w> 1234
1 6</w> 1234
ca su 1234
da ve_ 1234
bo ats</w> 1234
[dvd ]</w> 1234
an i</w> 1233
vi ens</w> 1233
stor ms</w> 1233
encontra r</w> 1233
materi al</w> 1233
S hit</w> 1232
' '</w> 1232
re vol 1232
you - 1232
ni fi 1232
C lo 1231
ë  1231
to xi 1231
for ma</w> 1231
ten sion</w> 1231
Pe ter</w> 1231
th ful</w> 1230
en chan 1230
po ints</w> 1230
pr é 1230
rain bows</w> 1230
V ir 1229
or dan</w> 1229
sa gt</w> 1229
sca pe</w> 1229
thir sty</w> 1229
d ere</w> 1228
c ease</w> 1228
re ve 1228
ki llers</w> 1228
gen cy</w> 1228
tter ing</w> 1228
S po 1227
ma mma</w> 1227
ca ls</w> 1227
ho mes</w> 1227
pa ying</w> 1227
ci endo</w> 1227
mu ss</w> 1227
S wing</w> 1226
B it 1226
ll er 1226
bi lly</w> 1226
str o</w> 1226
tre ss</w> 1226
mel ting</w> 1226
Fi f 1226
Str ange</w> 1226
l ang 1225
ch u</w> 1225
me k</w> 1225
le ga 1225
fa thers</w> 1225
fe st</w> 1225
No where</w> 1225
shi ver</w> 1225
spo on</w> 1225
Va mos</w> 1225
th at 1224
ga so 1224
du des</w> 1224
ein fach</w> 1224
reck less</w> 1224
es _ 1223
dis grace</w> 1223
S la 1222
B right</w> 1222
in credi 1222
ca b</w> 1222
Sa il</w> 1222
fÃ¼ r</w> 1222
[# ]</w> 1222
di ffi 1221
mon s</w> 1221
See ing</w> 1221
jea lousy</w> 1221
va cation</w> 1220
ju kebox</w> 1220
rep ly</w> 1220
conne ction</w> 1220
Fren ch</w> 1220
d well</w> 1219
gu m</w> 1219
Ve gas</w> 1219
sinc ere</w> 1219
w ounded</w> 1218
so bre</w> 1218
sc ando</w> 1218
all er</w> 1218
black bird</w> 1218
Ã ¢</w> 1217
be ggin</w> 1217
ch ev 1217
Sp read</w> 1217
figh tin</w> 1217
climb ing</w> 1217
F ar 1216
s ca</w> 1216
ri ver 1216
se mb 1216
sta tic</w> 1216
fron tin</w> 1216
ö n 1215
E Y</w> 1215
ri ses</w> 1215
re d 1215
so mos</w> 1215
Do in</w> 1215
def en 1215
mee ting</w> 1215
ca ta 1214
tra gic</w> 1213
sur re 1213
You re</w> 1213
Engli sh</w> 1213
a me</w> 1212
E ither</w> 1212
co llar</w> 1212
sha kes</w> 1212
foo lin</w> 1212
c to</w> 1211
B E</w> 1211
th read</w> 1211
re pu 1211
jo kes</w> 1211
Ta kes</w> 1211
qu' un</w> 1211
conne ct</w> 1211
opp ortun 1211
h lt</w> 1210
so oner</w> 1210
pan e</w> 1210
b ir</w> 1209
1 3</w> 1209
ha go</w> 1209
wi d</w> 1208
ck as</w> 1208
cha s</w> 1208
fla vor</w> 1208
million aire</w> 1208
P ur 1207
P ra</w> 1207
st it 1207
la la</w> 1207
wo llen</w> 1207
n en 1206
li k 1206
su a</w> 1206
po sed</w> 1206
com men 1206
gra ves</w> 1206
va le</w> 1206
cur sed</w> 1206
W oo 1205
4 5</w> 1205
an ds</w> 1205
Ma ster</w> 1205
hy pe</w> 1205
g na 1204
fel low</w> 1204
prote ction</w> 1204
ë  1203
ho mme</w> 1203
le i</w> 1203
mo b</w> 1203
tri bu 1203
sna p</w> 1203
gon na</w> 1203
echo es</w> 1203
r s</w> 1202
e lo 1202
M . 1202
mor t</w> 1202
gri ll</w> 1202
expe cted</w> 1202
re lief</w> 1201
ki lla</w> 1201
Dri ving</w> 1201
habla r</w> 1201
s que</w> 1200
an ne</w> 1200
be ha 1200
ba star 1200
di gging</w> 1200
sta ins</w> 1200
con scious</w> 1200
par aly 1200
suit case</w> 1200
s laughter</w> 1199
stra p</w> 1199
rememb ered</w> 1199
un ion</w> 1198
ch - 1198
ll i</w> 1197
gra n</w> 1197
n ent</w> 1196
m our</w> 1196
ar row</w> 1196
fif th</w> 1196
inde er</w> 1196
Figh ting</w> 1196
d ine</w> 1195
ver ing</w> 1195
Tur ned</w> 1195
A ma 1194
Ç a</w> 1194
cor ri 1194
sin ners</w> 1194
ig ns</w> 1194
ye o 1194
forsa ken</w> 1194
s z 1193
jud gment</w> 1193
F ate</w> 1192
co o</w> 1192
Ja g</w> 1192
W ed 1191
E m</w> 1191
be have</w> 1191
pi Ã¹</w> 1190
re bel 1189
di ck</w> 1189
ta te</w> 1189
drea d</w> 1189
ja mes</w> 1189
S uper</w> 1188
wh it 1188
se x</w> 1188
fi le</w> 1188
pe ur</w> 1188
colo red</w> 1188
ci de</w> 1187
con vin 1187
sc en 1187
br ingin</w> 1187
Hur ry</w> 1187
pien so</w> 1187
exp li 1187
ha lls</w> 1186
pro vo 1186
ne ither</w> 1185
dea f</w> 1185
wra th</w> 1185
tang led</w> 1185
S cha 1184
ma la 1184
fa ctory</w> 1184
vi v 1184
gu tter</w> 1184
t ine</w> 1183
g love</w> 1183
ee zy</w> 1183
al ex 1183
he ute</w> 1183
quest a</w> 1183
z ard</w> 1182
A lles</w> 1182
se _ 1182
so ñ 1182
gi ant</w> 1182
fu er 1182
sta ke</w> 1182
see in</w> 1182
Bo b</w> 1182
Po wer</w> 1182
t' aime</w> 1182
N ous</w> 1181
ha w 1181
stea m</w> 1181
Si ster</w> 1181
T O 1180
C hu 1180
pri me</w> 1180
temp era 1180
prin cess</w> 1180
kn eel</w> 1180
sku ll</w> 1180
c ers</w> 1179
or e 1179
Lo sing</w> 1179
sch la 1179
cur tains</w> 1179
Ghe tto</w> 1179
' fore</w> 1178
ri ce</w> 1178
de bt</w> 1178
Sha ll</w> 1178
gif ts</w> 1178
ev ard</w> 1177
el les</w> 1177
co s 1177
ta sted</w> 1177
fe ct</w> 1177
Si de</w> 1177
sigh s</w> 1177
Screa ming</w> 1177
z oo</w> 1176
T re 1176
al ter 1176
hop ed</w> 1176
do wns</w> 1175
Ha ving</w> 1175
Star ted</w> 1175
a sh</w> 1174
le toe</w> 1174
s our</w> 1173
el ed</w> 1173
dro wned</w> 1173
def end</w> 1173
Ï  1172
aqu el</w> 1172
P an 1171
sc enes</w> 1171
thro win</w> 1171
pl ant</w> 1171
cul ture</w> 1171
ma id</w> 1170
ru p 1170
dream ers</w> 1170
pha se</w> 1170
S ar 1169
ir gend 1169
ja cket</w> 1169
son ed</w> 1169
psy cho 1169
g ear</w> 1168
A L 1168
on al</w> 1168
le mon</w> 1168
mor n</w> 1168
dar me</w> 1168
sou ven 1168
bra zos</w> 1168
sing er</w> 1168
ev' r 1168
e p 1167
kno t</w> 1167
ru shing</w> 1167
ci le</w> 1167
sti cated</w> 1167
cho o 1167
Baby lon</w> 1167
- moi</w> 1166
victi ms</w> 1166
Any way</w> 1166
ev ing</w> 1165
hi des</w> 1165
Man n</w> 1165
child hood</w> 1165
x y</w> 1164
C er 1164
mp er</w> 1164
ang le</w> 1164
pi g</w> 1164
sho pping</w> 1164
ber t_ 1164
l unch</w> 1163
al es</w> 1163
lu m</w> 1163
par ties</w> 1163
as su 1163
perfe ctly</w> 1163
a z</w> 1162
G ri 1162
tt es</w> 1162
ff y</w> 1162
e do</w> 1161
l é 1161
Fr ance</w> 1161
S he 1160
wa gon</w> 1160
re dee 1160
ab ri 1160
ac cep 1160
tun nel</w> 1160
co ll 1159
v em</w> 1158
y all</w> 1158
pi le</w> 1158
pro fe 1158
es con 1158
emp ire</w> 1158
disapp eared</w> 1158
S - 1157
O c 1157
scar y</w> 1157
sea ts</w> 1157
h ä 1156
A w</w> 1156
coun ty</w> 1156
advan tage</w> 1156
T an</w> 1155
me nos</w> 1155
bu stin</w> 1155
W rit 1154
pe ux</w> 1154
dies er</w> 1154
ü r 1153
I sland</w> 1153
ba il</w> 1153
up town</w> 1153
ü r</w> 1152
su ckers</w> 1152
est - 1152
wal tz</w> 1152
Won der 1152
yor k</w> 1152
S op 1151
K id</w> 1151
m son</w> 1151
me iner</w> 1151
le ben</w> 1151
pi cking</w> 1151
sor rows</w> 1151
oh hh</w> 1151
zz o</w> 1151
fea st</w> 1151
We g</w> 1151
sour ce</w> 1151
fi end</w> 1150
mis understood</w> 1150
van _ 1150
k ha 1149
qu eri 1149
man sion</w> 1149
pupp et</w> 1149
l ent</w> 1148
c le 1148
la bel</w> 1148
sa b 1148
mar vel 1148
ti g</w> 1147
cor pse</w> 1147
ber g</w> 1147
car ries</w> 1146
flo wn</w> 1146
goodb yes</w> 1146
en vy</w> 1144
Be thlehem</w> 1144
tri pping</w> 1144
mm t</w> 1144
cri mes</w> 1144
ski lls</w> 1144
lei cht</w> 1144
S hou 1143
K eeping</w> 1143
D ol 1143
in te 1143
co le</w> 1143
co tt 1143
pa l</w> 1143
ab solu 1143
ste hen</w> 1143
practi ce</w> 1143
blank et</w> 1143
o lution</w> 1142
de mo</w> 1142
m be</w> 1141
Ã </w> 1141
re p</w> 1141
go _ 1141
ur o</w> 1141
il er</w> 1141
ac cor 1141
Un cle</w> 1141
M al 1140
dr un 1140
laugh in</w> 1140
S ound</w> 1139
an xi 1139
me inen</w> 1139
ta stes</w> 1139
vo m</w> 1139
pra yin</w> 1139
cer ca</w> 1139
Ja mai 1139
Tw enty</w> 1139
al guien</w> 1138
micha el_ 1138
i hn</w> 1137
gi o</w> 1137
su spi 1137
hi - 1137
pre pare</w> 1137
ke it</w> 1136
ra ys</w> 1135
de grees</w> 1135
pre y</w> 1135
sho w 1135
D or 1134
be - 1134
ur ed</w> 1134
dra u 1134
Jack son</w> 1134
M ira</w> 1133
V oc 1133
ck age</w> 1133
for _ 1133
per haps</w> 1133
ra us</w> 1132
sha dy</w> 1132
bb les</w> 1132
p eep</w> 1131
p elo</w> 1131
ó mo</w> 1131
2 4</w> 1131
ro wed</w> 1131
ma th</w> 1131
sp ort</w> 1131
bu ying</w> 1131
mar ks</w> 1131
neigh bor</w> 1131
High er</w> 1131
experi ence</w> 1131
circu m 1131
Para dise</w> 1131
g no</w> 1130
P A 1130
it i</w> 1130
po dr 1130
gu a</w> 1130
oo h- 1130
B ig 1129
min es</w> 1129
Ro ck 1129
voc Ãª</w> 1129
grou p</w> 1129
de u 1128
ag ony</w> 1128
thri lls</w> 1128
Wo ke</w> 1128
v ey 1127
f loo 1127
po st 1127
je der</w> 1127
Pa ck</w> 1127
v ent 1126
b rew</w> 1126
P raise</w> 1126
pla yers</w> 1126
Jo y</w> 1126
S O</w> 1125
der a</w> 1125
tro it</w> 1125
gentle men</w> 1125
in stin 1124
re mor 1124
el la_ 1124
su ffo 1124
de fine</w> 1124
ci u 1124
bu sted</w> 1124
can ción</w> 1124
fr en 1124
all en</w> 1124
blon de</w> 1124
S now</w> 1123
ra ted</w> 1123
de m 1123
wor thless</w> 1123
lu x 1123
r ust</w> 1122
g it</w> 1122
th ed</w> 1122
re indeer</w> 1122
di scu 1122
liber ty</w> 1122
it ar</w> 1121
na i</w> 1121
ab lo</w> 1121
gra bbed</w> 1121
sti ll 1121
Na da</w> 1121
etern ally</w> 1121
d n</w> 1120
m ía</w> 1120
D r.</w> 1120
an as</w> 1120
co z</w> 1120
gar y_ 1120
Pro mi 1120
cel ess</w> 1120
Gol den</w> 1120
G I 1119
Î ±</w> 1119
sun day</w> 1119
Sli m</w> 1119
O ther</w> 1118
re lea 1118
tar get</w> 1118
mist letoe</w> 1118
safe ty</w> 1118
er no</w> 1117
Can dy</w> 1117
v oodoo</w> 1116
ga u 1116
bu d 1116
end re</w> 1116
fix ed</w> 1116
t ing 1115
fa cing</w> 1115
con stru 1115
Do g</w> 1115
Go ds</w> 1115
c ke</w> 1114
9 9</w> 1114
s ólo</w> 1113
wi shin</w> 1113
comfor table</w> 1113
dust ry</w> 1113
y as</w> 1112
per man 1112
lle gar</w> 1112
F lying</w> 1111
r ounds</w> 1111
C loser</w> 1111
lo re</w> 1111
di ggin</w> 1111
Th eres</w> 1111
te u</w> 1111
ho sp 1110
Ma d</w> 1110
Dar kness</w> 1110
' t 1109
ho e</w> 1109
p ounding</w> 1108
qui la</w> 1108
cli que</w> 1108
shoo tin</w> 1108
illu sions</w> 1108
LO VE</w> 1108
S ally</w> 1107
M it</w> 1107
mor s</w> 1107
deci sions</w> 1107
invol ved</w> 1107
a tin</w> 1106
y an</w> 1106
cu sto 1106
' M</w> 1105
C H</w> 1105
rea ds</w> 1105
le tz 1105
sw eep</w> 1105
min a</w> 1105
hon esty</w> 1105
spo tlight</w> 1105
effe ct</w> 1105
daw g</w> 1105
hi d</w> 1104
har t</w> 1104
ton gues</w> 1104
gar bage</w> 1104
Hea vy</w> 1104
Cha sing</w> 1104
en ger</w> 1103
su erte</w> 1103
car pet</w> 1103
ad ven 1103
pen se</w> 1103
i da</w> 1102
n é</w> 1102
B or 1102
sta ir 1102
nes day</w> 1102
C oo 1101
G host</w> 1101
ar io</w> 1101
un happy</w> 1101
ever s</w> 1101
Mar ie</w> 1101
imp ro 1101
far ther</w> 1101
assi m</w> 1101
S w 1100
d ella</w> 1100
to ck</w> 1100
war ned</w> 1100
nu m</w> 1100
consi der</w> 1100
blei bt</w> 1100
bee p</w> 1100
satelli te</w> 1100
rab bit</w> 1100
o gni</w> 1099
E ste</w> 1099
mo ld</w> 1099
au f 1099
human ity</w> 1099
gaso line</w> 1099
d die</w> 1098
W it</w> 1098
wh el 1098
op f</w> 1098
mon d</w> 1098
sto ppin</w> 1098
sk irt</w> 1098
sea led</w> 1098
finger tips</w> 1098
S O 1097
ma ze</w> 1097
mo l 1097
man n</w> 1097
bro ther 1097
hor ns</w> 1097
Ra dio</w> 1097
w ins</w> 1096
B el 1096
ha ter</w> 1096
pa sse</w> 1096
we it</w> 1096
Lo vin</w> 1096
stu dio</w> 1096
k na 1095
e star 1095
T reat</w> 1095
cho s</w> 1095
O H</w> 1094
I ma</w> 1094
in spir 1094
ha le</w> 1094
cra cked</w> 1094
squera de</w> 1094
S u</w> 1093
or g 1093
su ici 1093
ton es</w> 1093
wan na</w> 1093
sear ched</w> 1093
gli mp 1093
Dan n</w> 1093
dur o</w> 1093
Dou ble</w> 1093
pre sident</w> 1092
app ears</w> 1092
ren e 1092
dep ths</w> 1092
i 'll</w> 1091
el even</w> 1091
fa int</w> 1091
sh _ 1091
sil hou 1091
answ ered</w> 1091
supp ly</w> 1091
so il</w> 1090
dev ils</w> 1089
supp ort</w> 1089
night mares</w> 1089
a void</w> 1088
th ea 1088
wer den</w> 1088
e la 1087
A vec</w> 1087
co ffin</w> 1087
ele ss 1087
gro s</w> 1087
i mm 1086
ght ful</w> 1086
ama zed</w> 1086
reme dy</w> 1086
obse ssion</w> 1086
re c 1085
ur sday</w> 1085
blu e_ 1085
televi sion</w> 1085
e mm 1084
y ester 1084
x 2</w> 1084
O u</w> 1084
ea ger</w> 1084
un ited</w> 1084
mi ch 1084
flo r</w> 1084
ava it</w> 1084
non - 1084
r y- 1083
p ine</w> 1083
f en 1083
P . 1083
comp re 1083
skin ny</w> 1083
S ky</w> 1082
ur y</w> 1082
gi l 1082
ex it</w> 1082
sen s</w> 1082
surr ounds</w> 1082
histor ia</w> 1082
appreci ate</w> 1082
n is</w> 1081
un fold</w> 1081
ga thered</w> 1081
ter a</w> 1081
col ours</w> 1081
hor ror</w> 1080
i ' 1079
ch rist</w> 1079
ga do</w> 1079
pa tter 1079
S U 1078
S cream</w> 1078
l u</w> 1078
ra y_ 1078
ali ze</w> 1078
is ce</w> 1078
pon y</w> 1078
sai lor</w> 1078
x ed</w> 1077
ì  1077
so in</w> 1077
de ja 1077
Ro ckin</w> 1077
wonder in</w> 1077
U h- 1076
be coming</w> 1076
S ac 1075
Mar i 1075
guit ars</w> 1075
m Ã­</w> 1074
E lec 1074
Pa c</w> 1074
rela tion 1074
cheri sh</w> 1074
n n</w> 1073
m ing 1073
m r.</w> 1073
th angs</w> 1073
ea tin</w> 1073
er n</w> 1073
ll evo</w> 1073
ci p 1073
car ici 1073
Sha dows</w> 1073
Hea ven 1073
betra yed</w> 1073
r or 1072
M oun 1072
un de</w> 1072
ja w</w> 1072
t et</w> 1071
no tte</w> 1071
el es</w> 1071
ni ente</w> 1071
ci ble</w> 1071
lon g 1071
ste ht</w> 1071
shel ls</w> 1071
Mor ning</w> 1071
coa ster</w> 1071
cond ition</w> 1071
encuen tro</w> 1071
di ese</w> 1070
me inem</w> 1070
fa u 1070
tr on</w> 1070
sp en 1070
car ol 1070
ther e 1070
Whi sper</w> 1070
ang led</w> 1069
na tions</w> 1069
nu ttin</w> 1069
bar a</w> 1069
thr ough 1069
ma ta</w> 1068
di gas</w> 1068
di ga</w> 1068
ner ves</w> 1068
k rie 1067
Y el 1067
re late</w> 1067
da wning</w> 1067
ge ance</w> 1067
sw ingin</w> 1067
Par k</w> 1067
dece ive</w> 1067
destro yed</w> 1067
T E</w> 1066
P lan 1066
Ã¡ n 1066
i de</w> 1065
ser á</w> 1065
Bu y</w> 1065
sla ves</w> 1065
vuel vo</w> 1065
L am 1064
fi ghter</w> 1064
pr onto</w> 1064
Sil ence</w> 1064
hypnoti zed</w> 1064
a las</w> 1063
sa ils</w> 1063
bro ken 1063
gro win</w> 1063
j' suis</w> 1063
gui ding</w> 1063
mach ines</w> 1063
Any where</w> 1063
pul se</w> 1063
re gga 1062
fa z</w> 1062
pa u 1062
sp y</w> 1062
bri an_ 1062
gior no</w> 1062
A tt 1061
lo g</w> 1061
bu ena</w> 1061
stra pped</w> 1061
tor ch</w> 1061
sue ño</w> 1061
presen ts</w> 1061
L ow</w> 1060
8 0</w> 1060
see - 1060
Sh es</w> 1060
Rea ching</w> 1060
i sing</w> 1059
p lead</w> 1059
w el</w> 1059
so cks</w> 1059
wo e</w> 1059
Mo m</w> 1059
bu ck 1058
bea ten</w> 1058
ve mber</w> 1058
don ne</w> 1058
swa g</w> 1058
obe y</w> 1058
thank ful</w> 1058
p reach</w> 1057
c hat</w> 1057
fi esta</w> 1057
lyri cal</w> 1057
M el 1056
T each</w> 1056
P - 1056
re ste</w> 1056
mi cs</w> 1056
gu erra</w> 1056
te xt</w> 1056
mm en</w> 1056
Sa int</w> 1056
bar ri 1056
will st</w> 1056
ido l</w> 1056
H ab 1055
ou bli 1055
wa an</w> 1055
ri re</w> 1055
ra it</w> 1055
je wel 1055
C - 1054
er _ 1054
it t</w> 1054
crea tures</w> 1054
def ense</w> 1054
e ce</w> 1053
Y ours</w> 1053
mi d</w> 1053
wan n</w> 1053
can tar</w> 1053
de mand</w> 1052
val entine</w> 1052
repu tation</w> 1052
Ba y</w> 1051
l' on</w> 1051
Ton y</w> 1051
exi ste</w> 1051
natura lly</w> 1051
z t</w> 1050
ü ber</w> 1050
ci to</w> 1050
Rea d</w> 1050
Blu es</w> 1050
k ur 1049
el in</w> 1049
wi g</w> 1049
vo lar</w> 1049
Bro thers</w> 1049
foun tain</w> 1049
i s_ 1048
t ête</w> 1048
mi re</w> 1048
cha ined</w> 1048
dro pping</w> 1048
' cross</w> 1047
S car 1046
2 - 1046
du sk</w> 1046
Bro adway</w> 1046
S ans</w> 1045
S hot</w> 1045
J i 1045
ar on</w> 1045
wa ving</w> 1045
ke e</w> 1045
ven ue</w> 1045
oc chi</w> 1045
gang ster</w> 1045
equ al</w> 1045
dyna mite</w> 1045
S co 1044
fi sts</w> 1044
sta yin</w> 1044
vo glio</w> 1044
wan dered</w> 1044
Af raid</w> 1044
Gran d 1044
r ang</w> 1043
c ans</w> 1043
th reat</w> 1043
ri f 1043
pu shin</w> 1043
dri ven</w> 1043
ste in</w> 1043
av ant</w> 1043
e gal</w> 1042
R ay</w> 1042
Se con 1042
aqu Ã­</w> 1042
break down</w> 1042
l è 1041
f lie 1041
' cos</w> 1041
N ur</w> 1041
ver so</w> 1041
Co m 1041
at t</w> 1041
figur es</w> 1041
ami gos</w> 1041
H oo 1040
f eeds</w> 1040
G l 1040
N A</w> 1040
Î µ 1040
si r 1040
hi sto 1040
mb ler</w> 1040
cu tting</w> 1040
ph ony</w> 1040
sli ce</w> 1040
spar ks</w> 1040
Coun t</w> 1040
me m' 1039
AR E</w> 1039
de ss</w> 1039
lea p</w> 1039
et ly</w> 1039
Br inging</w> 1039
R est 1038
in ti 1038
ha e</w> 1038
ca de</w> 1038
la dder</w> 1038
ve lo 1038
dra gon</w> 1038
in dustry</w> 1037
ri ms</w> 1037
mo d 1037
tri ste 1037
Wa sh</w> 1037
sin atra</w> 1037
justi fy</w> 1037
e scri 1036
A long</w> 1036
ab raz 1036
va li 1036
Fa st</w> 1036
dra ws</w> 1035
Ge ld</w> 1035
É n</w> 1035
K ing 1034
J enny</w> 1034
an da</w> 1034
ro deo</w> 1034
ca ve</w> 1034
de z</w> 1034
for sake</w> 1034
sta b</w> 1034
pu ff</w> 1034
ssi e</w> 1034
smi lin</w> 1034
ph s</w> 1034
Y ear</w> 1033
f ella</w> 1033
fi c</w> 1033
Ro ad</w> 1033
posit ive</w> 1033
Geor ge</w> 1033
u sa 1032
m é</w> 1032
I r 1032
lo so 1032
ra l</w> 1032
na tional</w> 1032
tre mbling</w> 1032
w en</w> 1031
lo - 1031
ma u 1031
a pren 1030
el eva 1030
se curity</w> 1030
fu erte</w> 1030
La ss</w> 1030
Tra pped</w> 1030
Ã¤ n 1030
friend ship</w> 1030
Pr ince</w> 1030
C ree 1029
er ror</w> 1029
it ely</w> 1029
ee ee 1029
min ate</w> 1029
Na me</w> 1029
butter flies</w> 1029
compet ition</w> 1029
incredi ble</w> 1029
' er</w> 1028
cor por 1028
Ha il</w> 1028
Mi ami</w> 1028
dd y_ 1028
ignor ance</w> 1028
a y- 1027
Y ears</w> 1027
G A 1027
da sh</w> 1027
am arte</w> 1027
tch er</w> 1027
pati ently</w> 1027
j n</w> 1026
li s</w> 1026
qu el</w> 1026
for ces</w> 1026
d' amour</w> 1026
groo vy</w> 1026
thor ns</w> 1026
i or</w> 1025
S pa 1025
K ra 1025
1 - 1025
fi red</w> 1025
tri al</w> 1025
Ta kin</w> 1025
Dr inking</w> 1025
Rapp er</w> 1025
marvel ous</w> 1025
r yin</w> 1024
vi cious</w> 1024
bu eno</w> 1024
hon estly</w> 1024
abo ard</w> 1024
Ver y</w> 1024
an ni 1023
du ll</w> 1023
coo kin</w> 1023
to mb</w> 1022
Wal kin</w> 1022
resi stance</w> 1022
nar row</w> 1022
l one</w> 1021
A ber</w> 1021
N A 1021
you 're</w> 1021
ter _ 1021
ble - 1021
mir rors</w> 1021
emo tional</w> 1021
sco pe</w> 1021
tatt oo 1021
S enti 1020
p sy</w> 1020
d ition</w> 1020
G ang</w> 1020
ha tes</w> 1020
ga ined</w> 1020
de inen</w> 1020
we some</w> 1020
Ki ds</w> 1020
Ko mm</w> 1020
tempera ture</w> 1020
ö r 1019
st op 1019
ar r 1019
per sua 1019
thu mb</w> 1019
chea ting</w> 1019
colle ct</w> 1019
posse ss</w> 1019
and_ the_ 1019
on de</w> 1018
co ck 1018
tu cky</w> 1018
fo ggy</w> 1018
Ga ther</w> 1018
tax i</w> 1018
c ca</w> 1017
lo y 1017
re gi 1017
tr y 1017
dro ppin</w> 1017
imag es</w> 1017
u s 1016
ma y 1016
dea ling</w> 1016
inv ited</w> 1016
ameri can</w> 1016
abandon ed</w> 1016
t é 1015
f eeding</w> 1015
T R 1015
lo cks</w> 1015
tu tti</w> 1015
stri fe</w> 1015
des so</w> 1015
__ __ 1015
k ai 1014
T ea 1014
Î ¼ 1014
ce ux</w> 1014
fanta sies</w> 1014
a partment</w> 1013
on - 1013
po ta 1013
ent ley</w> 1013
je den</w> 1013
fli r 1013
oh- oh-oh</w> 1013
sue ños</w> 1013
b ber 1012
fu el</w> 1012
br in 1012
pen sa 1012
Hi - 1012
ha ces</w> 1011
la c</w> 1011
pa vement</w> 1011
clo ver</w> 1011
dis covered</w> 1011
Ã¨ re</w> 1011
a ch</w> 1010
f right</w> 1010
E i 1010
Da y 1010
bal loon</w> 1010
ain 't</w> 1010
Sche i 1010
Eng land</w> 1010
ë  1009
di to</w> 1009
mi g</w> 1009
ci vi 1009
P sy 1008
to ssed</w> 1008
der ni 1008
hang s</w> 1008
a tor</w> 1007
in stant</w> 1007
trea ts</w> 1007
m ero</w> 1006
J an 1006
lo s_ 1006
ti cs</w> 1006
ing ton</w> 1006
du sty</w> 1006
all _ 1006
p ent</w> 1005
D ad</w> 1005
N E 1005
fi ddle</w> 1005
i _ 1004
ti me 1004
tri c</w> 1004
smo ked</w> 1004
glimp se</w> 1004
st itu 1003
ss on</w> 1003
any how</w> 1003
sche i 1003
fit z 1003
i an</w> 1002
la wn</w> 1002
gg ers</w> 1002
Wa itin</w> 1002
boo m</w> 1002
tun es</w> 1002
an ti</w> 1001
ra ps</w> 1001
ci ans</w> 1001
ex e 1001
sho win</w> 1001
dan se</w> 1001
stan te</w> 1001
Do gg</w> 1001
crea ture</w> 1001
Bl ind</w> 1001
bo mb</w> 1000
ge o 1000
pu llin</w> 1000
To m</w> 1000
sty les</w> 1000
d elu 999
K ind</w> 999
chi lls</w> 999
app ar 999
dark er</w> 999
U P</w> 998
tre mble</w> 998
cabe za</w> 998
er i</w> 997
da ze</w> 997
clu bs</w> 997
nin ety- 997
suc ceed</w> 997
vi sto</w> 996
we stern</w> 996
t' es</w> 996
anti cipa 996
nece sito</w> 996
so - 995
su bli 995
cha sin</w> 995
nick el</w> 995
Diamon ds</w> 995
Happ iness</w> 995
to tally</w> 994
chea tin</w> 994
side walk</w> 994
u en</w> 993
ir re 993
bu cket</w> 993
bi z</w> 993
tru sted</w> 993
spea kers</w> 993
hr t</w> 993
fon do</w> 993
clear er</w> 993
it en</w> 992
qu et</w> 992
bi dden</w> 992
thi eves</w> 992
t ful</w> 991
W N</w> 991
Sta te</w> 991
re surre 990
il in</w> 990
S cho 989
ro w 989
go ose</w> 989
ent ity</w> 989
che w</w> 989
Trou ble</w> 989
i ci</w> 988
h u</w> 988
di ss</w> 988
pa ssa 988
pla ins</w> 988
pi ckin</w> 988
cu lar</w> 988
pain ful</w> 988
Ven us</w> 988
F low</w> 987
re turned</w> 987
sa vin</w> 987
rea r</w> 987
si do</w> 987
mo men 987
ab sur 987
Ch in 987
Qui en</w> 987
amb ition</w> 987
frank_ sinatra</w> 987
swal lowed</w> 987
cara van</w> 987
hun ter</w> 986
survi val</w> 986
wear in</w> 986
b ing</w> 985
R ai 985
ta tions</w> 985
fa tal</w> 985
vi ent</w> 985
pi c</w> 985
mutha fuckin</w> 985
phra se</w> 985
a ti</w> 984
wa it 984
ti res</w> 984
so ar</w> 984
ter n</w> 984
lin da</w> 984
Pla ce</w> 984
Cla p</w> 984
k it</w> 983
R ich</w> 983
ha h</w> 983
min em</w> 983
Ch ina</w> 983
Lu cy</w> 983
c or</w> 982
M E 982
j us</w> 982
la ys</w> 982
No el</w> 982
blin ding</w> 982
villa ge</w> 982
W ol 981
me ter</w> 981
wn _ 981
dren al 981
W arm</w> 980
cu sed</w> 980
he ur</w> 980
tou te</w> 980
beg in 980
D E 979
L earn</w> 979
ç o</w> 979
on g 979
ra h</w> 979
car na 979
We il</w> 979
o x 978
B ust</w> 978
O b 978
an der</w> 978
ca ble</w> 978
wo mb</w> 978
Who le</w> 978
zi e 978
motherfu cker</w> 978
warri or</w> 978
ca ll 977
con sci 977
op era 977
star ry</w> 977
com b</w> 977
Co z</w> 977
ask s</w> 977
deni al</w> 977
guarante ed</w> 977
G O</w> 976
ma dre</w> 976
do zen</w> 976
po quito</w> 976
sta ble</w> 976
tambi én</w> 976
Chev y</w> 976
a mos</w> 975
R oo 975
le ttin</w> 975
ga tion</w> 975
de z 975
mu erte</w> 975
pro per</w> 975
che cking</w> 975
boo th</w> 975
ameri can_ 975
d d</w> 974
th ing 974
li tt 974
ar med</w> 974
de ix 974
cha l 974
see king</w> 974
attra ction</w> 974
ribb ons</w> 974
blos som</w> 974
S ingin</w> 973
j u</w> 973
ca fe</w> 973
sa vage</w> 973
fi ction</w> 973
sta sh</w> 973
ci do</w> 973
par ar</w> 973
sto ck</w> 973
ac tions</w> 973
sl ang</w> 973
du g</w> 973
Ro me</w> 973
et ite</w> 973
un wind</w> 972
en ne</w> 972
re y</w> 972
so w</w> 972
sp ra 972
cor ps</w> 972
vin cible</w> 972
rit mo</w> 972
s ite</w> 971
b lo</w> 971
C over</w> 971
me ssing</w> 971
ga da</w> 971
Be ware</w> 971
Wa ter</w> 971
ght - 971
Sp inning</w> 971
mur der</w> 971
Lau ghing</w> 971
E le 970
th under 970
rea p</w> 970
ba dly</w> 970
tru mp 970
san c 970
pen as</w> 970
cru shed</w> 970
att emp 970
is se 970
eri c_ 970
i k 969
x - 969
Â ¿ 969
du ty</w> 969
P O 968
ar gu 968
na _ 968
din ero</w> 968
vor bei</w> 968
mira r</w> 968
Dest ro 968
sang re</w> 968
glu e</w> 968
opportun ity</w> 968
a gg 967
v ince</w> 967
o a 967
1 8</w> 967
un cle</w> 967
ti r</w> 967
ra tt 967
bo w 967
de mise</w> 967
bu mpin</w> 967
Re cor 967
mista ken</w> 967
poe try</w> 967
champ ion</w> 967
k eeper</w> 966
no tion</w> 966
sa mba</w> 966
br it 966
fol lows</w> 966
tin a</w> 966
sa ddle</w> 965
sin cer 965
Bu ild</w> 965
kar ma</w> 965
Nu mber</w> 965
Ala bama</w> 965
umb re 965
w w</w> 964
da i</w> 964
Ma y 964
br on 964
No - 964
Coun ting</w> 964
for ms</w> 963
ver a</w> 963
Mon a</w> 963
fou l</w> 963
dea ler</w> 962
gra vey 962
chi ef</w> 962
sti cky</w> 962
gree dy</w> 962
A hh</w> 961
ca sket</w> 961
be gu 961
do lls</w> 961
Ba ck 961
tri ump 961
tter y</w> 961
h len</w> 960
l ink</w> 960
st roll</w> 960
s . 959
pi a</w> 959
dea d_ 959
gera ld</w> 959
y u</w> 958
ì  958
ou se</w> 958
de fi 958
Ca st</w> 958
Pa st</w> 958
ali bi</w> 958
ta it</w> 957
ge d 957
pe op 957
jo ys</w> 957
W rite</w> 956
qua ke</w> 956
pow der</w> 956
Rel ease</w> 956
sk ele 955
comp u 955
Sho o 955
siren s</w> 955
. I. 954
W HA 954
ê ² 954
da da</w> 954
to ol</w> 954
qu in 954
man e</w> 954
am ount</w> 954
Lo cked</w> 954
au tres</w> 954
Ga me</w> 954
through out</w> 954
n eva</w> 953
D oo 953
ma chen</w> 953
sha ky</w> 953
ju ste</w> 953
pea u</w> 953
Mar s</w> 953
cree pin</w> 953
estre llas</w> 953
B ow</w> 952
ri sh</w> 952
re placed</w> 952
pa use</w> 952
ge ous</w> 952
Po li 952
Wha tcha</w> 952
h l 951
ha m 951
ha ha</w> 951
ch st</w> 951
qu en 951
ab u 951
Ma gic</w> 951
S ha</w> 950
yo r</w> 950
st ir 950
evi dence</w> 950
o' er</w> 950
fu iste</w> 949
can dle 949
L. A</w> 949
dese o</w> 949
Wed nesday</w> 949
a mu 948
li bre</w> 948
Carol ina</w> 948
as sa 947
cho o</w> 947
ro cky</w> 946
si gue</w> 946
de h</w> 946
pre ssed</w> 946
as Ã­</w> 946
vol ta</w> 946
def ea 946
a it</w> 945
S T</w> 945
T us</w> 945
star tin</w> 945
Ex cuse</w> 945
US T</w> 945
i sin</w> 944
k nu 944
in in</w> 944
bo mb 944
wel ls</w> 944
Ver se</w> 944
remor se</w> 944
in fer 943
sto mp</w> 943
che cks</w> 943
mid st</w> 943
wa t</w> 942
co st 942
high - 942
cen ts</w> 942
sna kes</w> 942
kni ves</w> 942
ella_ fitz 942
an ing</w> 941
Se a</w> 941
Mo on 941
et t</w> 941
Under stand</w> 941
and y_ 941
m t</w> 940
st ening</w> 940
di jo</w> 940
mo ms</w> 940
ge es</w> 940
na vi 940
gen ius</w> 940
Ear ly</w> 940
shou ting</w> 940
Clu b</w> 940
a w</w> 939
M o</w> 939
ir u</w> 939
temp or 939
vie ws</w> 939
celebra tion</w> 939
c row</w> 938
P as</w> 938
ro ot</w> 938
who ever</w> 938
app ro 938
pare ce</w> 938
senten ce</w> 938
i x</w> 937
u - 937
T ous</w> 937
dep ends</w> 937
back yard</w> 936
ess ence</w> 936
climb ed</w> 936
opin ion</w> 936
B ounce</w> 935
N ine</w> 935
stre tched</w> 935
magi cal</w> 935
progre ss</w> 935
t ão</w> 934
E mily</w> 934
vi vre</w> 934
pi pes</w> 934
ve ut</w> 934
sca le</w> 934
Mr s.</w> 934
p at</w> 933
si ca</w> 933
ur ge</w> 933
cre o</w> 933
E st 932
I g 932
go wn</w> 932
me mb 932
sit ion</w> 932
mini sc 932
j on 931
Î ½ 931
mer as</w> 931
dark ened</w> 931
az ul</w> 931
t ness</w> 930
s ine</w> 930
in te</w> 930
di ana_ 930
Ã¡ n</w> 930
vin o</w> 930
Gr and</w> 930
k ins</w> 929
un ite</w> 929
ro sa</w> 929
bu d</w> 929
over whel 929
cl are</w> 929
divi ded</w> 929
batt les</w> 929
ella_fitz gerald</w> 929
t s 928
I k</w> 928
po ps</w> 928
Ma c</w> 928
Lo vers</w> 928
Hi ding</w> 928
exc iting</w> 928
rememb ering</w> 928
to ward</w> 927
so da</w> 927
fe mme</w> 927
bea tin</w> 927
il la 927
lon gest</w> 927
hu i</w> 927
re quest</w> 926
dan ces</w> 926
zur ück</w> 926
isi ana</w> 926
t are</w> 925
e on</w> 925
har d 925
pen sando</w> 925
spo ts</w> 925
raz ón</w> 925
L. A.</w> 925
' Cos</w> 924
2 5</w> 924
be ans</w> 924
di ct</w> 924
wil dest</w> 924
bad dest</w> 924
S cra 923
do es 923
of fice</w> 923
psy cho</w> 923
Diamon d</w> 923
f ä 922
B less</w> 922
A ls</w> 922
ha tt 922
fin na</w> 922
Ho w 922
fro ze</w> 922
kan nst</w> 922
fasc ination</w> 922
musc le</w> 922
ciu dad</w> 922
p p</w> 921
ma tt 921
ca tching</w> 921
co eur</w> 921
ch ur 921
na m</w> 921
con c 921
car ni 921
he ed</w> 921
au ssi</w> 921
sch rei 921
Ã­ as</w> 921
a tra 920
d é</w> 920
en ta</w> 920
ru e</w> 920
ul _ 920
Per haps</w> 920
Fr ank</w> 920
conta ct</w> 920
fair y 920
extre me</w> 920
w ink</w> 919
g len 919
pa ins</w> 919
lu v</w> 919
il o</w> 919
smi c</w> 919
Ro meo</w> 919
De troit</w> 919
sacri fi 919
desp u 919
blue birds</w> 919
z- vous</w> 919
Writ ten</w> 919
se ction</w> 918
ang ers</w> 918
loo t</w> 918
au di 918
To i</w> 918
even tually</w> 918
care er</w> 918
OU T</w> 918
S pea 917
th o</w> 917
be soin</w> 917
Sha dy</w> 917
LI KE</w> 917
a to 916
4 - 916
ma squerade</w> 916
ca tions</w> 916
de jo</w> 916
na e</w> 916
dri ed</w> 916
son g 916
fo i</w> 916
Fin ding</w> 916
C ir 915
st ride</w> 915
qu Ã©</w> 915
sta tus</w> 915
est u 915
sw er 915
crow ds</w> 915
shor es</w> 915
in a_ 914
in vincible</w> 914
ch ten</w> 914
wi s 914
ga tor</w> 914
ver t</w> 914
dor mir</w> 914
2 1</w> 913
ga bri 913
tou ches</w> 913
El vis</w> 913
criti ci 913
r out 912
s by</w> 912
ca mp</w> 912
ing t</w> 912
man era</w> 912
ten erte</w> 912
Fa ith</w> 912
free zing</w> 912
Ã¤ r</w> 912
M ine</w> 911
fir m</w> 911
Ã© n</w> 911
cen se</w> 911
jur y</w> 911
ch mal</w> 910
Ri o</w> 910
liber tad</w> 910
bai la</w> 910
Wra pped</w> 910
s ence</w> 909
b row</w> 909
W er</w> 909
L Y</w> 909
E in 909
di - 909
pa ci 909
ver s 909
See m</w> 909
o co</w> 908
_ har 908
ri di 908
co - 908
sp ittin</w> 908
fu r</w> 908
pro ject</w> 908
car ri 908
vu oi</w> 908
t read</w> 907
v ant</w> 907
u er</w> 907
A lors</w> 907
bu n</w> 907
my sti 907
nu mb 907
cro is</w> 907
Se i</w> 907
Sl eeping</w> 907
pear l</w> 907
A M</w> 906
ha ut</w> 906
ma sses</w> 906
di gn 906
Th ursday</w> 906
hi ci 906
ang e 906
Lo ck</w> 906
str ung</w> 906
Sha me</w> 906
door way</w> 906
_ j 905
har vest</w> 905
bla zing</w> 905
our ed</w> 905
reali se</w> 905
new born</w> 905
W ea 904
I d</w> 904
si Ã³n</w> 904
le gi 904
tr en 904
pra ises</w> 904
que ens</w> 904
WHA T</w> 904
F at</w> 903
ma t 903
per der 903
chang in</w> 903
end lessly</w> 903
du b</w> 902
Di xie</w> 902
hun dre 902
plea sant</w> 902
Ru ssi 902
rede mption</w> 902
a an</w> 901
a wesome</w> 901
p itch</w> 901
K opf</w> 901
in fi 901
re turning</w> 901
sh - 901
str an 901
feli ci 901
ar i</w> 900
ba d_ 900
Th u 900
sp el</w> 900
pp le</w> 900
sch ö 900
ein mal</w> 900
disp lay</w> 900
u ri 899
D one</w> 899
O o</w> 899
E li 899
Î ¿ 899
al tar</w> 899
di mes</w> 899
da v 899
fa ils</w> 899
ad dress</w> 899
regu lar</w> 899
p li 898
an them</w> 898
sa iled</w> 898
dea d 898
stra igh 898
TH IS</w> 898
regar d</w> 898
Sno op</w> 898
é r 897
] [*]</w> 897
st ling</w> 897
la ting</w> 897
ni gga 897
lea sh</w> 897
vi on</w> 897
car rying</w> 897
qui siera</w> 897
gen era 897
ava is</w> 897
Me ine</w> 897
main tain</w> 897
L em</w> 896
it - 896
re ssion</w> 896
ru pt</w> 896
ss ent</w> 896
mu ddy</w> 896
est Ã¡</w> 896
dic en</w> 896
four - 896
lim its</w> 896
le t 895
de sig 895
a ches</w> 894
e sos</w> 894
st i</w> 894
co stu 894
mo tions</w> 894
happ enin</w> 894
ke iner</w> 894
l' é 894
2 2</w> 893
me ta 893
ve in</w> 893
Bro ke</w> 893
nuest ra</w> 893
repea ting</w> 893
b its</w> 892
C y 892
an ch 892
ri da</w> 892
ra m</w> 892
bro ads</w> 892
je g</w> 892
cal yp 892
swee tly</w> 892
Bur y</w> 892
Tra vel 892
ca stles</w> 891
ta i 891
H ell</w> 890
O ri 890
sa gen</w> 890
se st</w> 890
pa tri 890
che ckin</w> 890
gen u 890
Fe ed</w> 890
Lu ci 890
chea ted</w> 890
rou gh 890
phi loso 890
ou ter</w> 889
to mor 889
pa lace</w> 889
de ed</w> 889
bl in</w> 889
lin ed</w> 889
Ri din</w> 889
pain ting</w> 889
Gro wing</w> 889
re je 888
ne y_ 888
ss _ 888
deci rte</w> 888
cap it 888
chee ks</w> 888
Lou ie</w> 888
a ve</w> 887
d ías</w> 887
1 8 887
ca so</w> 887
pu ssy</w> 887
mar tin</w> 887
cou pe</w> 887
nin e 887
a ta</w> 886
d din</w> 886
M m</w> 886
D ich</w> 886
ma _ 886
ur u</w> 886
tri ple</w> 886
au thor 886
can ta</w> 886
Sun ny</w> 886
k la 885
E y</w> 885
par ole</w> 885
ye o</w> 885
est- ce</w> 885
co in</w> 884
su bur 884
char lie_ 884
john _ 884
h one</w> 883
o la</w> 883
D ing</w> 883
nu ff</w> 883
Su pp 883
fur y</w> 883
S par 882
O O 882
el las</w> 882
pa ths</w> 882
cri mson</w> 882
In dian</w> 882
Na die</w> 882
magaz ines</w> 882
le ys</w> 881
dri pping</w> 881
gri m</w> 881
desp ise</w> 881
op ens</w> 880
tu yo</w> 880
ex pen 880
gra du 880
ser enade</w> 880
gri mas</w> 880
foot ball</w> 880
boul evard</w> 880
lea ders</w> 879
con qu 879
min i</w> 879
To dos</w> 879
Re fle 879
spi der</w> 879
Boo gie</w> 879
t ings</w> 878
k led</w> 878
M olly</w> 878
ã  877
cli ps</w> 877
fan ts</w> 877
cari ño</w> 877
e ma</w> 876
de te 876
coun ts</w> 876
St one</w> 876
sy mbo 876
li d</w> 875
un real</w> 875
fa m</w> 875
he ure</w> 875
comp an 875
sca ttered</w> 875
cap tured</w> 875
Sou thern</w> 875
K ings</w> 874
ca er</w> 874
sp ins</w> 874
ru gged</w> 874
Ma ck</w> 874
ac er 874
Y a 873
no tre</w> 873
co ward</w> 873
to w</w> 873
vo y 873
sou p</w> 873
cha que</w> 873
ten s</w> 873
list enin</w> 873
impre ss</w> 873
T oo 872
di a 872
di ction</w> 872
qui etly</w> 872
son risa</w> 872
Sp ent</w> 872
disa gree</w> 872
arti st</w> 872
hosp ital</w> 872
ven geance</w> 871
Par t</w> 871
spee ch</w> 871
Thou ghts</w> 871
relea sed</w> 871
F I 870
ca ting</w> 870
ac count</w> 870
sea ms</w> 870
bru ised</w> 870
Wan ted</w> 870
a ta 869
n ana</w> 869
bro o 869
s é 868
o b</w> 868
o ffering</w> 868
C ele 868
1 st</w> 868
el n</w> 868
mar ty 868
ser t</w> 868
rain drops</w> 868
woo den</w> 868
Blo wing</w> 868
L ev 867
it as</w> 867
ing e</w> 867
con clu 867
we iter</w> 867
cro ws</w> 867
Da le</w> 867
s ends</w> 866
G en 866
mor al</w> 866
fi ends</w> 866
op ening</w> 866
stu dy</w> 866
d un</w> 865
ba ld</w> 865
Br on 865
Ber lin</w> 865
IT H</w> 865
h ne</w> 864
ar gue</w> 864
to wns</w> 864
wor m</w> 864
Co lo 864
An ybody</w> 864
watch es</w> 864
inv ite</w> 864
As í</w> 864
an ta</w> 863
sa pp 863
ac id</w> 863
ser i 863
ser ving</w> 863
es pa 863
tou tes</w> 863
low - 863
buil dings</w> 863
s' en</w> 863
hab its</w> 863
peop les</w> 863
t . 862
I st</w> 862
, 000</w> 862
ga y</w> 862
star es</w> 862
com man 862
mon sters</w> 862
sto s</w> 862
chi c</w> 862
fr o</w> 862
tor y</w> 862
app eared</w> 862
over time</w> 862
Na ture</w> 862
Cal i</w> 862
U S</w> 861
j or 861
ha ir 861
st an</w> 861
bla h</w> 861
tech ni 861
F li 860
d ys</w> 860
in toxi 860
mo bile</w> 860
pi re</w> 860
conc eal</w> 860
s ly</w> 859
d ou</w> 859
th ree 859
whi ps</w> 859
cover ing</w> 859
cora ção</w> 859
chemi cal</w> 859
v ance</w> 858
p eel</w> 858
n eat</w> 858
J ordan</w> 858
P l 858
re hear 858
bo ar 858
Sa yin</w> 858
era sed</w> 858
spar kle</w> 858
en ci 857
re verse</w> 857
win dy</w> 857
fle e</w> 857
Ken tucky</w> 857
bastar ds</w> 857
b é 856
sha ck</w> 856
pri se</w> 856
ph et</w> 856
Go es</w> 856
ho pe 855
fe male</w> 855
Sa fe</w> 855
qui er</w> 855
fo x</w> 855
tw er 855
j elly</w> 854
re presen 854
al mighty</w> 854
si cht</w> 854
pa ssi 854
pa ssin</w> 854
pro jects</w> 854
car ou 854
bl ur 854
dej es</w> 854
r in</w> 853
a voir</w> 853
p é 853
n ena</w> 853
f ont</w> 853
so ll</w> 853
bo lt</w> 853
na w</w> 853
du mp</w> 853
ke - 853
comp o 853
fol ds</w> 853
Mar k</w> 853
Lu cky</w> 853
Dre ssed</w> 853
t itude</w> 852
n un</w> 852
s ere</w> 852
sh ment</w> 852
vi r</w> 852
bu scando</w> 852
cu al 852
vo c</w> 852
inv itation</w> 852
k ön 851
h ee 851
d j</w> 851
do _ 851
de termin 851
der ness</w> 851
ce des</w> 851
Ta ste</w> 851
In di 851
fo e</w> 851
bal ls</w> 851
t' as</w> 851
Ou i</w> 851
F A 850
a un</w> 850
h itting</w> 850
j unk</w> 850
W ow</w> 850
5 0 850
la mente</w> 850
ss up</w> 850
mm y_ 850
pr int</w> 850
Dan ny</w> 850
concer n</w> 850
jack son</w> 850
a far</w> 849
z co</w> 849
1 7</w> 849
ss ey</w> 849
mon o</w> 849
sou th 849
dan ce 849
bra in 849
tan te</w> 849
amon gst</w> 849
mie ux</w> 849
i zed</w> 847
k un 847
B loo 847
un do</w> 847
sh irts</w> 847
ck led</w> 847
ig en</w> 847
Str ong</w> 847
esper anza</w> 847
Ke pt</w> 847
e ga</w> 846
p ours</w> 846
n as</w> 846
P op 846
ar ed</w> 846
wa kes</w> 846
ma - 846
pu zzle</w> 846
bl eeds</w> 846
bor rowed</w> 846
Wor kin</w> 846
faul ts</w> 846
S pen 845
m r</w> 845
O ye</w> 845
un seen</w> 845
en tras</w> 845
tt est</w> 845
pre fer</w> 845
Re p 845
mou ths</w> 845
iti ons</w> 845
confe ssion</w> 845
awa its</w> 845
20 0 845
zo mb 845
Sop hi 845
th ra 844
ou b 844
lea r</w> 844
di da</w> 843
pe ine</w> 843
bit ty</w> 843
reali dad</w> 843
wea ve</w> 843
ben e 843
nega tive</w> 843
Secon d</w> 843
w is</w> 842
z wei</w> 842
re igns</w> 842
ev ed</w> 842
el ev 842
do pe</w> 842
tra ces</w> 842
fro st</w> 842
sufri r</w> 842
atr ás</w> 842
i lles</w> 841
ra ttle</w> 841
plea sed</w> 841
jun tos</w> 841
desper ation</w> 841
j à</w> 840
P in 840
co py</w> 840
de b 840
sil k</w> 840
travel in</w> 840
S ounds</w> 839
qu ello</w> 839
pa ul_ 839
de jar</w> 839
ll - 839
Wa yne</w> 839
ju li 839
hh hh 839
n un 838
pi gs</w> 838
our ite</w> 838
up stairs</w> 838
can o</w> 838
nor thern</w> 838
Ä± m</w> 838
P ol 837
ca f 837
se para 837
qu a</w> 837
wal ker</w> 837
ste h</w> 837
y an 836
m mi</w> 836
U s</w> 836
di smi 836
sp rin 836
ex plan 836
sw ings</w> 836
cra shed</w> 836
cha sed</w> 836
Wo men</w> 836
amor es</w> 836
e de</w> 835
ta ire</w> 835
dra wing</w> 835
fea thers</w> 835
h end</w> 834
w oh</w> 834
tu n</w> 834
ton ite</w> 834
Su b 834
app eal</w> 834
survi ved</w> 834
Hu sh</w> 834
produ ct</w> 834
edu cation</w> 834
m ere</w> 833
A ct</w> 833
ha re</w> 833
sa d 833
ni et</w> 833
fo cused</w> 833
por tra 833
Sun shine</w> 833
john ny</w> 833
Flo ating</w> 833
b ears</w> 832
' 9 832
th orn</w> 832
ma la</w> 832
la it</w> 832
stra w 832
que do</w> 832
gli a</w> 832
Jo in</w> 832
del a</w> 832
Smo kin</w> 832
esper ar</w> 832
power ful</w> 832
a ste</w> 831
* *</w> 831
lo u</w> 831
el en</w> 831
di stor 831
pri ma</w> 831
J' suis</w> 831
depre ssion</w> 831
Z u 830
OU N 830
concentra te</w> 830
E ight</w> 829
si amo</w> 829
mo o 829
ve te</w> 829
wan der 829
dan g</w> 829
ven to</w> 829
In no 829
ka u</w> 829
ali en</w> 829
mel an 829
moon lit</w> 829
adi ós</w> 829
sett led</w> 829
gravey ard</w> 829
el and</w> 828
ru ins</w> 828
na ive</w> 828
per don 828
gra ph</w> 828
ju ego</w> 828
defea ted</w> 828
a desso</w> 827
S ong</w> 827
ro am 827
ma lo</w> 827
la tor</w> 827
su cht</w> 827
coun ted</w> 827
bri ghtly</w> 827
l' en 827
Br ought</w> 827
revea led</w> 827
shepher d</w> 827
Smi ling</w> 827
a ku</w> 826
l ange</w> 826
ti des</w> 826
re in</w> 826
la m</w> 826
se gun 826
cra ft</w> 826
Son o</w> 826
Hen ry</w> 826
Voc ê</w> 826
F ool</w> 825
li mou 825
wi ser</w> 825
gu l 825
ey _ 825
sli m</w> 825
nee dles</w> 825
Fu ckin</w> 825
Emb race</w> 825
o tic</w> 824
y yo</w> 824
B ee 824
E specially</w> 824
ha cia</w> 824
un ity</w> 824
ma m 824
te ur</w> 824
ac ts</w> 824
Fa me</w> 824
supre me</w> 824
k night</w> 823
e th</w> 823
j ou</w> 823
A li 823
po et</w> 823
versa l</w> 823
desper tar</w> 823
alter na 823
cost ello</w> 823
F ell</w> 822
H - 822
E sto</w> 822
[ from</w> 822
vi ctor 822
mp y</w> 822
ac ti 822
bla des</w> 822
under cover</w> 822
dru mmer</w> 822
qu' elle</w> 822
F elt</w> 821
k ite</w> 821
B I 821
A men</w> 821
un ' 821
ani e</w> 821
chap ter</w> 821
fav ourite</w> 821
in gale</w> 820
er an</w> 820
ha - 820
el li 820
pa c</w> 820
de ba 820
te k</w> 820
tra i 820
pu es</w> 820
ff ing</w> 820
De ja</w> 820
dev i 820
d' une</w> 820
Ã± os</w> 820
ling ers</w> 820
necess ary</w> 820
g ence</w> 819
A ve</w> 819
ck i 819
ing - 819
ac tually</w> 819
war t</w> 819
Re la 819
is - 819
her e 819
i- i- 819
Cap tain</w> 819
p ee 818
M et</w> 818
m mel</w> 818
x in</w> 818
W rong</w> 818
O ù</w> 818
you ll</w> 818
gi r</w> 818
vi su 818
po pped</w> 818
can do</w> 818
al u 817
tal ent</w> 817
eigh teen</w> 817
F ever</w> 816
o so</w> 816
D ying</w> 816
on ged</w> 816
an dar</w> 815
de clare</w> 815
ll _ 815
Mi entras</w> 815
quest i 815
Good night</w> 815
esp ero</w> 815
liqu id</w> 815
elvis_ costello</w> 815
W rap</w> 814
lo v 814
sa ves</w> 814
Wa king</w> 814
ther a 814
Jo se 814
believ in</w> 814
four th</w> 814
obli vion</w> 814
Lam b</w> 814
triste za</w> 814
mp le</w> 813
pro per 813
hor as</w> 813
mel o</w> 813
Dan cin</w> 813
parti r</w> 813
D in 812
' neath</w> 812
li zed</w> 812
ru mors</w> 812
pu erta</w> 812
disapp ears</w> 812
wil d 812
blin ds</w> 812
esper ando</w> 812
deman ds</w> 812
near ness</w> 812
Atlan ta</w> 812
k ita</w> 811
G race</w> 811
di ff 811
tr in 811
tur o</w> 811
dra gging</w> 811
Hi p</w> 811
slu mber</w> 811
impre ssed</w> 811
make up</w> 811
amane cer</w> 811
f ling</w> 810
B Y</w> 810
Î ¹ 810
con ci 810
blu r</w> 810
chi ca</w> 810
lla ma</w> 810
scar red</w> 810
fre est 810
Mu si 810
day dream</w> 810
writ er</w> 810
mour n</w> 810
o sa</w> 809
c tic</w> 809
W ITH</w> 809
ba it</w> 809
di ces</w> 809
ru led</w> 809
tu ary</w> 809
tri ps</w> 809
bri lli 809
sau ce</w> 809
hom ey</w> 809
billi on</w> 809
ang es</w> 808
bi e_ 808
bl unts</w> 808
Pu mp</w> 808
inter est</w> 808
did nt</w> 808
coul da</w> 808
warri ors</w> 808
a ha</w> 807
C D</w> 807
an dre 807
ti ghter</w> 807
ca lifornia</w> 807
bo dy 807
gu est</w> 807
sto ck 807
rist s</w> 807
wr ongs</w> 807
ed it 807
S ki 806
Y ea 806
A le 806
V a</w> 806
wa days</w> 806
hea p</w> 806
qu ita</w> 806
fi es</w> 806
gu a 806
ce ss 806
boo ze</w> 806
19 9 806
inse cure</w> 806
vou dra 806
cott age</w> 806
1 2 805
li mbs</w> 805
ti ves</w> 805
du e 805
ph ant</w> 805
ber e 805
strang est</w> 805
stran ded</w> 805
p el</w> 804
y land</w> 804
no ld</w> 804
wa shing</w> 804
ro cked</w> 804
se ñ 804
pla gue</w> 804
sn eak</w> 804
make - 804
U hh</w> 803
ha bl 803
di si 803
Ba be</w> 803
min or</w> 803
cer e 803
oc ca 803
ko to</w> 803
bon heur</w> 803
H mm</w> 802
B entley</w> 802
O oo 802
ra ck</w> 802
pi lot</w> 802
cra ck</w> 802
fin er</w> 802
ein em</w> 802
grand ma</w> 802
t ance</w> 801
li mb</w> 801
ho meless</w> 801
va mp 801
rain ed</w> 801
Fi lled</w> 801
cap ture</w> 801
d itch</w> 800
C . 800
sin o</w> 800
coun t 800
dis respect</w> 800
Ra in 800
ì ´</w> 800
rejo ice</w> 800
eless ly</w> 800
D at</w> 799
O hhh</w> 799
en dure</w> 799
sc ru 799
n' ai</w> 799
dign ity</w> 799
o va</w> 798
lo gic</w> 798
la bel 798
sp reading</w> 798
hu mming</w> 798
cro ssing</w> 798
Hu man</w> 798
awa k 798
rout ine</w> 798
N I 797
Ï  797
in complete</w> 797
ca ttle</w> 797
re su 797
cu ps</w> 797
per pe 797
ai mer</w> 797
plan ning</w> 797
m' en</w> 797
dee ds</w> 797
classi c</w> 797
histo ire</w> 797
a do 796
M es</w> 796
lo sers</w> 796
ta k</w> 796
pre va 796
min ded</w> 796
wre cked</w> 796
schi e 796
lux ury</w> 796
com mun 795
gra sp</w> 795
flo res</w> 795
bar k</w> 795
melo dies</w> 795
del _ 795
ax e</w> 795
C e 794
ha zy</w> 794
dea lt</w> 794
eep ers</w> 794
sil ently</w> 794
Bu il 794
zi one</w> 794
scri pt</w> 794
recuer dos</w> 794
llen ge</w> 794
h es</w> 793
m anger</w> 793
wa stin</w> 793
ti dings</w> 793
di f 793
me i 793
gi m 793
sh ington</w> 793
he cho</w> 793
ph in</w> 793
rai sing</w> 793
aw fully</w> 793
z oom</w> 792
lo ween</w> 792
ca ine</w> 792
to ot</w> 792
pa ved</w> 792
mb ia</w> 792
sk i</w> 792
of fi 792
even in</w> 792
lean ing</w> 792
mist ry</w> 792
begu ine</w> 792
t y_ 791
s ***</w> 791
po ver 791
cu rious</w> 791
ex - 791
dar n</w> 791
app etite</w> 791
Ri p</w> 791
survi vor</w> 791
g ee 790
be ck 790
ba sta</w> 790
vi de 790
lie bt</w> 790
Pa int</w> 790
ban ana</w> 790
esta ba</w> 790
i ds</w> 789
6 0</w> 789
pi ck 789
pre lude</w> 789
Sa tan</w> 789
chi me</w> 789
imp er 789
lle st</w> 789
llu via</w> 789
Vo ices</w> 789
smel ls</w> 789
k au 788
a tic</w> 788
c iti 788
P on 788
po t</w> 788
ab ra 788
con vince</w> 788
Je tzt</w> 788
spir itual</w> 788
US A</w> 788
hei ghts</w> 788
Hou ston</w> 788
woul da</w> 788
perman ent</w> 788
P rin 787
wh ine</w> 787
pa st 787
ssi ah</w> 787
free way</w> 787
spring time</w> 787
diffi cult</w> 787
umbre lla</w> 787
K NOW</w> 786
E ri 786
ro y 786
ta x</w> 786
pi ya</w> 786
Li ber 786
up tight</w> 786
WA Y</w> 786
dul ce</w> 786
g les</w> 785
ri ders</w> 785
ho wling</w> 785
tu re 785
wo y</w> 785
De ut 785
woo gie</w> 785
scri p 785
splend or</w> 785
a p 784
f ry</w> 784
C ant</w> 784
A venue</w> 784
re ser 784
tt s</w> 784
han k_ 784
fli pped</w> 784
beli evers</w> 784
em ce 784
rap ture</w> 784
D ru 783
x ing</w> 783
st all</w> 783
re ward</w> 783
le gal</w> 783
po sse</w> 783
per si 783
spa ce 783
Ri sing</w> 783
D an</w> 782
no ose</w> 782
ro e</w> 782
al an_ 782
bo ards</w> 782
ja ded</w> 782
ja mas</w> 782
lan ded</w> 782
Lou isiana</w> 782
infin ity</w> 782
provi de</w> 782
r onic</w> 781
E d</w> 781
ma li 781
ne ll</w> 781
su es</w> 781
ge u 781
Un ited</w> 781
Bo ss</w> 781
Fa ke</w> 781
mir o</w> 781
Hear t 781
éta is</w> 781
C lou 780
se gur 780
thou sands</w> 780
gn ant</w> 780
infin ite</w> 780
BU T</w> 780
muthafu cka</w> 780
convin ced</w> 780
a drenal 779
E ye</w> 779
hi zo</w> 779
bu scar</w> 779
Ã± a</w> 779
gin ia</w> 779
sali r</w> 779
jur o</w> 779
Jamai ca</w> 779
S wa 778
ea ts</w> 778
mi ssi 778
bel lo</w> 778
mou se</w> 778
Pro bably</w> 778
Sou th 778
wha ck</w> 778
law yer</w> 778
p one</w> 777
in crea 777
ma tes</w> 777
gi ous</w> 777
su m 777
ru ined</w> 777
fe u</w> 777
sy ste 777
wil derness</w> 777
near er</w> 777
a v</w> 776
e der 776
b ough</w> 776
an aly 776
ex amp 776
Di ffer 776
app ea 776
Lau gh</w> 776
ma c 775
mo t</w> 775
stri pes</w> 775
yea h- 775
t son</w> 774
r é</w> 774
le o</w> 774
op er</w> 774
sel e 774
star ed</w> 774
den ying</w> 774
clu tch</w> 774
Le tting</w> 774
Po lice</w> 774
mur der 774
Ang st</w> 774
Twi st</w> 774
cambi ar</w> 774
acci dent</w> 774
ye- bye</w> 774
inspir ed</w> 774
ü n 773
W ei 773
li c</w> 773
li on 773
di le</w> 773
Mo vin</w> 773
gli de</w> 773
fai ling</w> 773
en vi 772
Ma mi</w> 772
cra ving</w> 772
sig nal</w> 772
stea lin</w> 772
gri eve</w> 772
clai med</w> 772
Chri stian</w> 772
t su</w> 771
A ir</w> 771
J ay</w> 771
E sa</w> 771
in tro</w> 771
ti ming</w> 771
bo ot</w> 771
com ment</w> 771
pe u 771
Ch er 771
De sper 771
Do wn 771
im pa 771
coraz n</w> 771
esp era</w> 771
enchan ted</w> 771
er me</w> 770
ma d 770
el leicht</w> 770
for bidden</w> 770
con du 770
cti on 770
bon ita</w> 770
colla pse</w> 770
beat les</w> 770
o cu 769
con te 769
mon a</w> 769
sen sit 769
pue da</w> 769
sche mes</w> 769
cross roads</w> 769
introdu ce</w> 769
de signed</w> 768
we igh 768
men tality</w> 768
tru cks</w> 768
No vember</w> 768
enamor ado</w> 768
h ey- 767
pro fit</w> 767
fre ight</w> 767
oo- oo- 767
embra ceable</w> 767
parano id</w> 767
relation ship</w> 767
Yel low</w> 767
k yo</w> 766
W est 766
la is</w> 766
el los</w> 766
con oc 766
whi sk 766
plea sures</w> 766
cow boys</w> 766
ale gr 766
ti al</w> 765
ge tcha</w> 765
F l 764
y ay</w> 764
z ur</w> 764
V - 764
V ai</w> 764
ar mor</w> 764
re spir 764
to m_ 764
mi - 764
pre dic 764
du m</w> 764
spa ces</w> 764
En dless</w> 764
fre i</w> 764
sol ved</w> 764
testi fy</w> 764
P lea 763
roo f 763
Per fect</w> 763
heart less</w> 763
t .</w> 762
d y- 762
z ä 762
M O 762
A ni 762
J ean</w> 762
li me</w> 762
se cure</w> 762
fi lle</w> 762
lon ged</w> 762
lan do</w> 762
Ch i</w> 762
Rep eat</w> 762
i . 761
z el</w> 761
L ou</w> 761
in telli 761
de iner</w> 761
far mer</w> 761
strea ms</w> 761
exe cu 761
v rai</w> 760
y d</w> 760
E ter 760
si ente</w> 760
ll eva</w> 760
Li cht</w> 760
De in</w> 760
night ingale</w> 760
repea ts</w> 760
r ingin</w> 759
to ols</w> 759
ne o 759
pa tch</w> 759
de lay</w> 759
gra ms</w> 759
pen nies</w> 759
Ge ts</w> 759
Mir ror</w> 759
paraly zed</w> 759
Big gie</w> 759
eleva tor</w> 759
b la</w> 758
ro bbed</w> 758
ra gs</w> 758
kno cks</w> 758
do ck</w> 758
hi pp 758
star ving</w> 758
es sa 758
tou gh 758
pen e 758
uni or</w> 758
screa med</w> 758
swi ft</w> 758
indi go</w> 758
absur d</w> 758
S hu 757
h or</w> 757
c co</w> 757
m us</w> 757
ri sin</w> 757
re treat</w> 757
mo ins</w> 757
Wi pe</w> 757
sub way</w> 757
Brea thing</w> 757
gue ssing</w> 757
D ir</w> 756
rea ches</w> 756
me tt 756
so gno</w> 756
mi da</w> 756
ga mble</w> 756
vi o</w> 756
fri ed</w> 756
jo ined</w> 756
cho king</w> 756
De ine</w> 756
Ho od</w> 756
guar do</w> 756
cy ni 756
gentle man</w> 756
k ka</w> 755
g n</w> 755
T al</w> 755
or ders</w> 755
do ts</w> 755
Co m</w> 755
impre ssion</w> 755
twin kle</w> 755
l ti 754
l da</w> 754
la isse</w> 754
for giving</w> 754
fu turo</w> 754
ss - 754
sk irts</w> 754
am y_ 754
Sha re</w> 754
ful fill</w> 754
green er</w> 754
F ord</w> 753
a il 753
v ite</w> 753
ã  753
re minisc 753
mo do</w> 753
mo tel</w> 753
coun tin</w> 753
Vi ol 753
haun ts</w> 753
dimen sion</w> 753
k ai</w> 752
a ura</w> 752
d land</w> 752
T ar 752
B ought</w> 752
G al 752
è me</w> 752
ha l</w> 752
to ca</w> 752
hel la</w> 752
lan es</w> 752
Foo ls</w> 752
drun ken</w> 752
yester days</w> 752
w _ 751
K - 751
ne gle 751
per for 751
qui se</w> 751
Cal led</w> 751
b- b- 751
did n</w> 751
adven ture</w> 751
k lar</w> 750
ó nde</w> 750
A ri 750
ing en</w> 750
fe e</w> 750
ven go</w> 750
tan ta</w> 750
z ation</w> 749
B li 749
D ust</w> 749
re sting</w> 749
la sci 749
ch ina</w> 749
ex pla 749
cr an 749
bra g</w> 749
im mortal</w> 749
soa ked</w> 749
E den</w> 748
do is</w> 748
ga de</w> 748
EV ER</w> 748
wis dom</w> 748
in ho</w> 747
lo vel 747
en fants</w> 747
la un 747
ang les</w> 747
po ten 747
ge ta 747
am ends</w> 747
flo ors</w> 747
as se 747
beau ti 747
wel l- 747
six - 747
musi cal</w> 747
t í</w> 746
go spel</w> 746
su cking</w> 746
po sso</w> 746
pu mpin</w> 746
remin isce</w> 746
deep ly</w> 746
regga e</w> 746
S m 745
h on</w> 745
M is</w> 745
f ying</w> 745
D en</w> 745
' Round</w> 745
G ET</w> 745
pp e</w> 745
defin itely</w> 745
fuer za</w> 745
ri son</w> 744
pp er 744
con solation</w> 744
pi l 744
der ella</w> 744
Bo tt 744
Pu lling</w> 744
Car e 744
Ex press</w> 744
person ne</w> 744
esta mos</w> 744
a yu 743
N in 743
rea ct</w> 743
to ber</w> 743
hea lthy</w> 743
pre sley</w> 743
home town</w> 743
S k 742
L ean</w> 742
sh it 742
tur n 742
bit es</w> 742
tain ment</w> 742
n **** 741
T S</w> 741
ü ber 741
E . 741
E AR 741
er st</w> 741
gi ddy</w> 741
fa king</w> 741
fa bri 741
sta kes</w> 741
Be hold</w> 741
ter ra</w> 741
mis ma</w> 741
Sol di 741
approa ch</w> 741
No- one</w> 741
G ener 740
wa stel 740
be ds</w> 740
har mon 740
pre tti 740
stre ssed</w> 740
fun ction</w> 740
nie mals</w> 740
Cli mb</w> 740
expre ssion</w> 740
m ère</w> 739
ci sco</w> 739
star in</w> 739
i ca</w> 738
p ines</w> 738
W it 738
no ir</w> 738
sh one</w> 738
zi o</w> 738
myster ious</w> 738
glea m</w> 738
hatt an</w> 738
nigga z</w> 738
_ k 737
ma dly</w> 737
ho wl</w> 737
ra cks</w> 737
you ve</w> 737
pi o</w> 737
tra te</w> 737
tu be</w> 737
clo sest</w> 737
ser en 737
Ch ris</w> 737
An n</w> 737
politi cs</w> 737
salu te</w> 737
usa lem</w> 737
z en 736
T rain</w> 736
m r 736
O - 736
G . 736
ri - 736
fi shing</w> 736
gr is</w> 736
chi p</w> 736
bra kes</w> 736
dez vous</w> 736
T un 735
no ite</w> 735
be gged</w> 735
co la</w> 735
me dit 735
tor ment</w> 735
tan go</w> 735
gli tter</w> 735
vie ux</w> 735
Pre cious</w> 735
aby ss</w> 735
rever ie</w> 735
D rin 734
fli ct</w> 734
Pro te 734
Pro ble 734
dé jà</w> 734
cul ous</w> 734
consu me</w> 734
compar es</w> 734
Ev' ry</w> 734
Sophi sticated</w> 734
o y 733
for ge 733
ge no 733
Co ast</w> 733
fla sh 733
ii ii 733
Cele bra 733
f lo</w> 732
ri endo</w> 732
re gal 732
qu anto</w> 732
sha tter</w> 732
cha llenge</w> 732
flo win</w> 732
plan ted</w> 732
fli ppin</w> 732
ala bama</w> 732
mien tos</w> 732
battle field</w> 732
make- believe</w> 732
a ' 731
e ggs</w> 731
J UST</w> 731
lo cura</w> 731
ro bin</w> 731
re born</w> 731
ra dar</w> 731
se - 731
op er 731
brea thin</w> 731
uni que</w> 731
logi cal</w> 731
l ust</w> 730
' n 730
A po 730
an d- 730
So ft</w> 730
pro phet</w> 730
qui cker</w> 730
mar s</w> 730
fin ed</w> 730
dou ble- 730
ane w</w> 730
soo the</w> 730
Vu el 730
s ounding</w> 729
c ue</w> 729
f tly</w> 729
A lice</w> 729
J ea 729
ro ad 729
ti ca</w> 729
re qui 729
le z</w> 729
sel bst</w> 729
est er</w> 729
chi cago</w> 729
cla us</w> 729
fli ck</w> 729
ah í</w> 729
betra y</w> 729
voi x</w> 729
re sta 728
re spi 728
pa d</w> 728
for ty- 728
cu n</w> 728
De us</w> 728
Pre sident</w> 728
emb arra 728
side ways</w> 728
achi eve</w> 728
rearr ange</w> 728
h eel</w> 727
th al</w> 727
di _ 727
di ste</w> 727
si pping</w> 727
bo wie</w> 727
pi ed</w> 727
gg y_ 727
Ha us</w> 727
hun ting</w> 727
eri ff</w> 727
lik ely</w> 727
o ak</w> 726
H am 726
f *** 726
st ur 726
un - 726
di fer 726
mp a</w> 726
can ni 726
ad vance</w> 726
pour quoi</w> 726
pho to</w> 726
dedi cated</w> 726
frustra tion</w> 726
G un</w> 725
li ghten 725
ar ena</w> 725
en tender</w> 725
wi res</w> 725
le tt 725
par ting</w> 725
pu mped</w> 725
brea thless</w> 725
Be tty</w> 725
my stic</w> 725
che mistry</w> 725
Di eu</w> 725
mag nifi 725
dest ined</w> 725
Hi er</w> 725
Sch u 725
Coun try</w> 725
maj esty</w> 725
b angin</w> 724
un spoken</w> 724
gh t_ 724
ca bin</w> 724
di stan 724
vo ws</w> 724
chi lling</w> 724
Wil li 724
litt le_ 724
s ound 723
o ffered</w> 723
ton ces</w> 723
pun ks</w> 723
worl d 723
compre hend</w> 723
l Ã</w> 722
E ra</w> 722
V an</w> 722
an no 722
re mo 722
fe l</w> 722
ff alo</w> 722
fr a</w> 722
Me u</w> 722
Smo king</w> 722
year n</w> 722
v ors</w> 721
S tro 721
ma les</w> 721
ti a</w> 721
re ma 721
ph ine</w> 721
Mi ssing</w> 721
stu mbling</w> 721
chan son</w> 721
life style</w> 721
light ly</w> 721
cul pa</w> 721
F ue</w> 720
i deal</w> 720
ri ch 720
po bre</w> 720
qui eren</w> 720
Ni ght 720
mis be 720
jam ás</w> 720
corre ct</w> 720
W ear</w> 719
lo yal</w> 719
ar ea</w> 719
hea din</w> 719
ru mble</w> 719
com mit</w> 719
ali ce_ 719
Ã§ Ã£o</w> 719
awa ken</w> 719
g lan 718
M I</w> 718
D A</w> 718
I D</w> 718
ve nom</w> 718
stan dar 718
Sta dt</w> 718
ribb on</w> 718
wä r</w> 718
S cared</w> 717
me ch 717
con tra</w> 717
cr unk</w> 717
wee ds</w> 717
ag ed</w> 717
Ã¼ n 717
na- na- 717
p ev 716
T T 716
é l</w> 716
ra ble</w> 716
sa turday</w> 716
mo tha 716
lu c 716
Ba il 716
Wa tchin</w> 716
pr is</w> 716
Al le</w> 716
fo es</w> 716
jud y_ 716
ton_ john</w> 716
B in</w> 715
to ler 715
par ton</w> 715
car ing</w> 715
Loo ked</w> 715
sit a</w> 715
fli rt</w> 715
dece ption</w> 715
Fle sh</w> 715
U - 714
mi ll 714
wor th 714
ck e 714
ear ning</w> 714
hall way</w> 714
19 8 714
ign ite</w> 714
fairy tale</w> 714
S ' 713
f ou</w> 713
j á</w> 713
L ar 713
li ver</w> 713
ra s 713
so tros</w> 713
cri sis</w> 713
Wal ked</w> 713
arri ba</w> 713
bran ches</w> 713
S kin</w> 712
y l</w> 712
ar ies</w> 712
un ted</w> 712
en der</w> 712
bo y_ 712
pa g 712
su el 712
ing ers</w> 712
tur ing</w> 712
lla h</w> 712
thir teen</w> 712
emer gency</w> 712
subli me</w> 712
oub lie</w> 712
ti gh 711
di on</w> 711
ai sle</w> 711
cal ma</w> 711
phan tom</w> 711
reve lation</w> 711
o sa 710
f ty</w> 710
m mes</w> 710
co zy</w> 710
da ba</w> 710
ang el 710
ge gen</w> 710
man a</w> 710
fla kes</w> 710
l' amore</w> 710
mie i</w> 710
Jun ge</w> 710
S wear</w> 709
A cting</w> 709
ha be</w> 709
sa ble</w> 709
pa thetic</w> 709
ing ly</w> 709
man _ 709
Be li 709
pr ou 709
cur b</w> 709
Ã³ lo</w> 709
Stea dy</w> 709
popu lar</w> 709
fortun ate</w> 709
or a 708
ro yal</w> 708
ma tin</w> 708
ga thering</w> 708
sta te 708
pre si 708
dra gged</w> 708
bri ef</w> 708
temp t</w> 708
tan tas</w> 708
Sch la 708
vuel ta</w> 708
zar re</w> 708
Ï  707
ma ged 707
gi l</w> 707
po p 707
ser y</w> 707
tran qu 707
super man</w> 707
slu gs</w> 707
u pper</w> 706
f fe</w> 706
N . 706
ma si 706
se id</w> 706
ff en</w> 706
tor men 706
Lea ves</w> 706
Ru by</w> 706
ev'r ything</w> 706
wa llet</w> 705
re el</w> 705
mi ld</w> 705
le tte</w> 705
ver da 705
cha irs</w> 705
ju ven 705
expen sive</w> 705
i st 704
a dos</w> 704
ar es</w> 704
pa wn</w> 704
de main</w> 704
clo ses</w> 704
ten dr 704
my eon</w> 704
Do min 704
lin ing</w> 704
d' hui</w> 704
wei gh</w> 704
bitter sweet</w> 704
i re 703
lu ego</w> 703
ge ben</w> 703
sk e 703
wo ll 703
blu sh</w> 703
jo bs</w> 703
St ree 703
ig t</w> 703
val leys</w> 703
mai den</w> 703
indepen dent</w> 703
F lu 702
V ous</w> 702
ha ired</w> 702
ma s_ 702
ca meras</w> 702
ta - 702
pp led</w> 702
dis cip 702
Pla yin</w> 702
ed dy_ 702
jour d'hui</w> 702
Whi sper 702
ander son</w> 702
shepher ds</w> 702
i ss 701
h ey 701
d ant</w> 701
è ne</w> 701
R ou 701
rea lest</w> 701
si an</w> 701
str a</w> 701
Qu est 701
Mar tin</w> 701
moon beams</w> 701
swi r 701
trea sures</w> 701
olvi darte</w> 701
inten tion</w> 701
lega cy</w> 701
i mma</w> 700
t man</w> 700
S tru 700
y lor</w> 700
A g 700
ar ia</w> 700
pa ckin</w> 700
su mmers</w> 700
sp ears</w> 700
coun ter</w> 700
Si ento</w> 700
r ant</w> 699
D al 699
ca ses</w> 699
so mb 699
yel ling</w> 699
gang sta</w> 699
ulti mate</w> 699
brigh test</w> 699
F rea 698
a van 698
' Cuz</w> 698
L ine</w> 698
ex ten 698
va yas</w> 698
dire ctions</w> 698
dies en</w> 698
th an 697
ser pent</w> 697
scar let</w> 697
refle ct</w> 697
Fran cisco</w> 697
elvis_ presley</w> 697
e k 696
A di 696
ti enen</w> 696
do ves</w> 696
so mbra</w> 696
mi ller</w> 696
vi er</w> 696
es is</w> 696
dre sses</w> 696
is sue</w> 696
TH ING</w> 696
thro ws</w> 696
iti ous</w> 696
david_ bowie</w> 696
Comp ton</w> 696
pet ite</w> 696
earth ly</w> 696
S ell</w> 695
d chen</w> 695
ca si</w> 695
the y 695
So mos</w> 695
fl y 695
lle ga</w> 695
bru ise</w> 695
bili ties</w> 695
carni val</w> 695
h ers</w> 694
g Ã¶ 694
lo _ 694
per cent</w> 694
out law</w> 694
revo lu 694
doll y_ 694
souven irs</w> 694
silhou ette</w> 694
F lip</w> 693
S mall</w> 693
e state</w> 693
s lay</w> 693
H I 693
B lock</w> 693
li ars</w> 693
ga ts</w> 693
bea n</w> 693
ac or 693
ter - 693
dan i 693
fanta stic</w> 693
pour ed</w> 693
foun dation</w> 693
pover ty</w> 693
t ut</w> 692
ab used</w> 692
dea ls</w> 692
au s 692
ban a</w> 692
pur se</w> 692
cta tions</w> 692
n ****</w> 691
A dam</w> 691
ë  691
el led</w> 691
sa bor</w> 691
su elo</w> 691
ab sence</w> 691
ste er</w> 691
glo be</w> 691
trea ting</w> 691
groo vin</w> 691
k no</w> 690
_ ha 690
ca sti 690
da mag 690
con cea 690
tri ll</w> 690
cre er</w> 690
ed die_ 690
Kan sas</w> 690
equi vo 690
dolly_ parton</w> 690
pp en</w> 689
lie be</w> 689
ah hh</w> 689
CA N</w> 689
volu me</w> 689
in iti 688
no things</w> 688
re mix]</w> 688
pe cu 688
cha mber</w> 688
mar y_ 688
emp ie 688
che cked</w> 688
Su rely</w> 688
ë </w> 688
e ig 687
s words</w> 687
C lear</w> 687
0 0 687
ch ter</w> 687
ta sk</w> 687
mo stly</w> 687
pro ps</w> 687
dea th 687
explo re</w> 687
jud gement</w> 687
posse ssed</w> 687
Fai thful</w> 687
Ã ¬</w> 686
C i</w> 686
ar rê 686
dar y</w> 686
bl ee 686
tea u</w> 686
shar k</w> 686
gener al</w> 686
Tel ls</w> 686
lifel ess</w> 686
D Y</w> 685
' 8 685
Â ¡ 685
in n</w> 685
no va</w> 685
wa s 685
ho ll 685
do o- 685
si ren</w> 685
de mos</w> 685
bea ch_ 685
ex change</w> 685
pri ma 685
stor es</w> 685
Mer cedes</w> 685
sle eves</w> 685
musi que</w> 685
ev in</w> 684
de ss 684
sl ands</w> 684
zi p</w> 684
Ã­ o</w> 684
compla ining</w> 684
apologi es</w> 684
S ter 683
ã ©</w> 683
he ut</w> 683
hou se 683
t' en</w> 683
dd les</w> 683
Son ne</w> 683
Pra ying</w> 683
i la</w> 682
H angin</w> 682
Ð ¾ 682
in divi 682
ox y 682
a st 681
S pain</w> 681
un ting</w> 681
ni ck</w> 681
mo le 681
for te</w> 681
sta tes</w> 681
hor ri 681
pen ed</w> 681
Si ppin</w> 681
scre wed</w> 681
MA N</w> 681
Sab es</w> 681
D is</w> 680
x x</w> 680
P al 680
be loved</w> 680
su l</w> 680
Ha b</w> 680
chan nel</w> 680
lle go</w> 680
ener y</w> 680
dedi cate</w> 680
gabri el</w> 680
S ent</w> 679
bo b</w> 679
sp ice</w> 679
ru sty</w> 679
car ved</w> 679
Sa g</w> 679
Ro cky</w> 679
stra w</w> 679
l' air</w> 679
low ers</w> 679
Con trol</w> 679
os ite</w> 679
fear less</w> 679
empe zar</w> 679
i dio 678
l á</w> 678
B ang</w> 678
re d- 678
sa tin</w> 678
ba ke</w> 678
fa tes</w> 678
bu bbles</w> 678
ju bi 678
vie jo</w> 678
senti do</w> 678
Que ens</w> 678
hesit ation</w> 678
maged don</w> 678
a ar 677
x ic</w> 677
co ma</w> 677
pp o</w> 677
po w</w> 677
oo oo</w> 677
bu sco</w> 677
Mi s 677
Mar ch</w> 677
mag ne 677
glo ves</w> 677
bon _ 677
H E</w> 676
B en</w> 676
ha ra 676
ho - 676
si entes</w> 676
de inem</w> 676
po s</w> 676
po llu 676
pu de</w> 676
So oner</w> 676
cu tie</w> 676
che d 676
por te</w> 676
black ened</w> 676
Glo ria</w> 676
blue bird</w> 676
camb io</w> 676
author ity</w> 676
respi rar</w> 676
f ted</w> 675
gi o 675
pla tes</w> 675
con tre</w> 675
stra it</w> 675
stre i 675
Tra um</w> 675
seven th</w> 675
ligh ting</w> 675
cos ì</w> 675
tempor ary</w> 675
i ba</w> 674
H eld</w> 674
O k</w> 674
I llu 674
in clu 674
pa ckage</w> 674
sun s</w> 674
Ju de</w> 674
inv iting</w> 674
ball er</w> 674
org ani 674
compu ter</w> 674
u sted</w> 673
wi ves</w> 673
ex cel 673
sk ill</w> 673
ke inen</w> 673
jun kie</w> 673
mien tras</w> 673
Black bird</w> 673
Differ ent</w> 673
t win</w> 672
t Ã©</w> 672
c u</w> 672
B o</w> 672
ri char 672
la use</w> 672
ra pping</w> 672
co i 672
hi din</w> 672
tri als</w> 672
bur dens</w> 672
bra ke</w> 672
Qui ck</w> 672
dire ct</w> 672
pon go</w> 672
coo king</w> 672
ger n</w> 672
Mer cy</w> 672
igno red</w> 672
gga ge</w> 672
estre lla</w> 672
blos so 672
real m</w> 672
K new</w> 671
ri ddle</w> 671
ee e</w> 671
ne ck 671
il _ 671
To mmy</w> 671
Au gust</w> 671
Stan din</w> 671
sex y</w> 671
i hm</w> 670
ri m</w> 670
ra ces</w> 670
ga mbler</w> 670
fa st 670
sh ite</w> 670
vi ver</w> 670
dan _ 670
Qu em</w> 670
p ses</w> 669
p eak</w> 669
ti ghtly</w> 669
re a</w> 669
se ize</w> 669
pa th 669
ven ir</w> 669
end lich</w> 669
wil son</w> 669
deli cious</w> 669
abi lity</w> 669
a lo 668
v els</w> 668
T E 668
m c</w> 668
da ted</w> 668
su ite</w> 668
mar ia</w> 668
En de</w> 668
super st 668
cl one</w> 668
wir k 668
a cuer 667
h _ 667
er ai</w> 667
ev ol 667
ee m</w> 667
tu ries</w> 667
min ation</w> 667
can vas</w> 667
ent i</w> 667
chan te</w> 667
eter no</w> 667
dd led</w> 667
Fra u</w> 667
Hen ne 667
T. V</w> 667
S a</w> 666
ro d</w> 666
you s</w> 666
sa f 666
sa m 666
co lon 666
hea da 666
lea gue</w> 666
par le</w> 666
te quila</w> 666
clo sely</w> 666
ren dezvous</w> 666
Sp in</w> 666
sua ve</w> 666
Spe cial</w> 666
decei ving</w> 666
consequ ence</w> 666
a spe 665
T earing</w> 665
in flu 665
od d</w> 665
Sli de</w> 665
frighten ing</w> 665
fasc in 665
stair way</w> 665
carou sel</w> 665
t s_ 664
B all</w> 664
ê ¸ 664
an na</w> 664
st eep 664
en tal</w> 664
ra me</w> 664
di vin 664
ver o</w> 664
fu sion</w> 664
drea d 664
cha ble</w> 664
emp lo 664
pr endre</w> 664
glo ria</w> 664
thu g</w> 664
wit ched</w> 664
christ ina_ 664
refu sed</w> 664
commit ted</w> 664
Heaven ly</w> 664
sanc tuary</w> 664
st .</w> 663
ca mi 663
go ssi 663
co p 663
ne cks</w> 663
le mon 663
bor der 663
l' o 663
menti ra</w> 663
Simp le</w> 663
candle light</w> 663
d ded</w> 662
M ani 662
m É 662
j es</w> 662
ê · 662
en jo 662
re l 662
bel onged</w> 662
tor tured</w> 662
ai mais</w> 662
stri pped</w> 662
pol ka</w> 662
Y e</w> 661
L E 661
st unt</w> 661
ca tchin</w> 661
be lie 661
pa yin</w> 661
de an_ 661
cu late</w> 661
tz en</w> 661
Ver sa 661
conce ive</w> 661
Sm ith</w> 661
S ólo</w> 660
B il 660
th a_ 660
or ed</w> 660
pa s 660
cu a 660
Qu it</w> 660
spe c 660
cla ws</w> 660
Pu tting</w> 660
xi co</w> 660
Dro wning</w> 660
drif ted</w> 660
tomor rows</w> 660
w ur 659
ro pa</w> 659
la ced</w> 659
de spe 659
ck -a- 659
sp he 659
tur key</w> 659
vo te</w> 659
mar ked</w> 659
mer ci 659
her mo 659
ag low</w> 659
possi bly</w> 659
mod els</w> 659
How ever</w> 659
m less</w> 658
A int</w> 658
ar ch 658
un fair</w> 658
TI ME</w> 658
vi de</w> 658
bi o 658
zi g</w> 658
six ty</w> 658
depre ssed</w> 658
h é 657
y ar 657
Y uh</w> 657
T H</w> 657
j al 657
an c 657
an cy</w> 657
fi car</w> 657
ol den</w> 657
De si 657
Pi er 657
back ground</w> 657
Sl eep 657
defin ed</w> 657
worth while</w> 657
v ari 656
3 - 656
me ga 656
su ffered</w> 656
fe ds</w> 656
nu clear</w> 656
sli t</w> 656
La ura</w> 656
c é 655
D ai 655
ar o 655
pa dre</w> 655
par ked</w> 655
sor ri 655
stea ls</w> 655
thu mp</w> 655
swea ter</w> 655
id entity</w> 655
Ã¢ Â 655
joy ful</w> 655
hundre ds</w> 655
Bron x</w> 655
a er 654
g ant</w> 654
P unk</w> 654
 Â 654
er - 654
ma tar</w> 654
do gg</w> 654
wi llin</w> 654
mu eve</w> 654
dri ll</w> 654
cal _ 654
d- up</w> 654
enti re</w> 654
mes meri 654
carici as</w> 654
despu és</w> 654
e den</w> 653
w y 653
on y 653
ev olution</w> 653
me th 653
ta ker</w> 653
dea th_ 653
men o</w> 653
dra i</w> 653
over night</w> 653
nin ety</w> 653
atta ck</w> 653
Aqu í</w> 653
certain ty</w> 653
S ign</w> 652
T all</w> 652
N ear</w> 652
un said</w> 652
ro cker</w> 652
ma ta 652
hea ls</w> 652
le tide</w> 652
au rais</w> 652
thu ggin</w> 652
soa p</w> 652
B each</w> 651
U R 651
go o</w> 651
al to</w> 651
ll ena</w> 651
mu le</w> 651
jo ker</w> 651
sun down</w> 651
Me an 651
inter est 651
thir ty- 651
Comp le 651
beha vior</w> 651
Scho ol</w> 651
s coo 650
g yal</w> 650
f ences</w> 650
ba la 650
di spo 650
loo p</w> 650
Al i</w> 650
val ue</w> 650
care fully</w> 650
kit ty</w> 650
play ground</w> 650
i ster</w> 649
v ana</w> 649
e spo 649
f ***</w> 649
T a</w> 649
P han 649
en as</w> 649
la vi 649
ch ronic</w> 649
di scre 649
mb ing</w> 649
lie ben</w> 649
wan tin</w> 649
vuel vas</w> 649
Ã¢Â Â 649
c el</w> 648
it or</w> 648
sc an 648
he ure 648
An sw 648
a- a- 648
pass enger</w> 648
20 00</w> 648
criti cal</w> 648
p iti 647
c et</w> 647
z ei 647
T Ãº</w> 647
ë ¦ 647
to wers</w> 647
bra _ 647
plan ets</w> 647
Con tigo</w> 647
blei b</w> 647
whir l</w> 647
chick ens</w> 647
absolu tely</w> 647
anch or</w> 647
S ig 646
o ve</w> 646
c lau 646
m .</w> 646
pa sión</w> 646
Ma l</w> 646
sk ed</w> 646
sk ate</w> 646
Mo ses</w> 646
Go tt</w> 646
lone liest</w> 646
water fall</w> 646
eni x</w> 646
a ur 645
S ue</w> 645
be wil 645
me ssa 645
war um</w> 645
senti miento</w> 645
bru ce_ 645
guar dian</w> 645
gun na</w> 645
home boy</w> 645
c ture</w> 644
E se</w> 644
V on</w> 644
ha cen</w> 644
wa ge</w> 644
sa voir</w> 644
be tcha</w> 644
di va</w> 644
ci ent</w> 644
ac ep 644
blu ff</w> 644
son ic</w> 644
fre d 644
john son</w> 644
Col le 644
certain ly</w> 644
examp le</w> 644
Ï  643
ar nold</w> 643
ma g</w> 643
di shes</w> 643
Ma tter</w> 643
bar ry_ 643
fun do</w> 643
enter tain</w> 643
ssion al</w> 643
explan ation</w> 643
S am 642
W earing</w> 642
be tt 642
po ke</w> 642
sti cking</w> 642
ent ers</w> 642
bar e 642
app lause</w> 642
fun k 642
blin d 642
mil k 642
Sli p</w> 642
cruci fied</w> 642
P ink</w> 641
ë  641
en ess</w> 641
vi bes</w> 641
mb res</w> 641
con se 641
com passion</w> 641
sha pes</w> 641
tou chin</w> 641
bree zes</w> 641
í  641
S P 640
L as 640
al ert</w> 640
car te</w> 640
war en</w> 640
dev a 640
s_ band</w> 640
Pu lled</w> 640
Si x 640
G es 639
à ¤ 639
mor ir 639
mor nings</w> 639
nur se</w> 639
H au 638
K eepin</w> 638
M es 638
m ou</w> 638
A B 638
da bei</w> 638
pe cho</w> 638
war mer</w> 638
who a- 638
thou se</w> 638
expe ctations</w> 638
Hol din</w> 638
hust lin</w> 638
Thro wing</w> 638
stock ings</w> 638
g all 637
B ound</w> 637
D eeper</w> 637
' head</w> 637
9 0</w> 637
ì  637
in clin 637
li fting</w> 637
go als</w> 637
qu ina</w> 637
va ted</w> 637
pr ends</w> 637
wr in 637
Bi en</w> 637
Star ting</w> 637
deli vered</w> 637
Kno ws</w> 637
sn itch</w> 637
i 've</w> 636
s qu</w> 636
ã </w> 636
ti c_ 636
ho h</w> 636
di endo</w> 636
to ma 636
ver ses</w> 636
pro claim</w> 636
vo ll</w> 636
sti ff</w> 636
Re spect</w> 636
Ti e</w> 636
wir st</w> 636
sn it 636
ê° </w> 636
F ur 635
r itual</w> 635
k ri 635
D y 635
X - 635
un holy</w> 635
sp un</w> 635
sp rung</w> 635
ru e 635
gr ounds</w> 635
va ya</w> 635
cur ly</w> 635
Ki lla</w> 635
Dri fting</w> 635
shoo ter</w> 635
sie hst</w> 635
Super man</w> 635
ì  635
haw k</w> 635
d ging</w> 634
K elly</w> 634
M ême</w> 634
J on 634
be t 634
co smic</w> 634
de scu 634
fi shin</w> 634
te - 634
flo ck</w> 634
fla ws</w> 634
cur ve</w> 634
vol te</w> 634
respon sible</w> 634
Ãº n</w> 634
thera py</w> 634
a sc 633
a stron 633
d ors</w> 633
' cuz</w> 633
I mmer</w> 633
P ho 633
ro pes</w> 633
fa i</w> 633
mm ering</w> 633
Bu ried</w> 633
stri ve</w> 633
van ity</w> 633
wer d</w> 633
pal ms</w> 633
surr ounding</w> 633
domin o</w> 633
god dess</w> 633
Kin da</w> 633
Bon nie</w> 633
decei ved</w> 633
v eau</w> 632
d h</w> 632
b ye-bye</w> 632
al oud</w> 632
Th under</w> 632
OR E</w> 632
tu es</w> 632
dis co 632
esca ping</w> 632
gan ze</w> 632
ple dge</w> 632
atta ched</w> 632
Ble ssed</w> 632
Simp ly</w> 632
butt ons</w> 632
limou sine</w> 632
M ean</w> 631
B ells</w> 631
C lean</w> 631
& _the_ 631
sa viour</w> 631
pa cks</w> 631
An nie</w> 631
char ming</w> 631
tw ins</w> 631
bloo ded</w> 631
posse ssion</w> 631
Elec tric</w> 631
jewel ry</w> 631
geta way</w> 631
g ou 630
M P 630
in ting</w> 630
ti ckets</w> 630
se hr</w> 630
fi e</w> 630
te ch</w> 630
tu oi</w> 630
sou rire</w> 630
Lo vely</w> 630
tch u</w> 630
cli pse</w> 630
Pu erto</w> 630
chor ds</w> 630
aca ba</w> 630
Vir ginia</w> 630
r oun 629
a pril</w> 629
in ches</w> 629
ma dru 629
to wel</w> 629
ta pes</w> 629
qu ali 629
pi cks</w> 629
sk a 629
cro ire</w> 629
Al ready</w> 629
Par don</w> 629
Ã© e</w> 629
bal ling</w> 629
hh hhh</w> 629
doo med</w> 629
jew el</w> 629
Eter nal</w> 629
e minem</w> 628
o wned</w> 628
l é</w> 628
B ab 628
5 00</w> 628
en da</w> 628
ca ps</w> 628
the - 628
who o</w> 628
Mi ckey</w> 628
Bo ston</w> 628
sch en 628
mean ing 628
Har ry</w> 628
Wan ting</w> 628
Fan ta 628
ê² </w> 628
a e 627
S ca 627
T on</w> 627
D S</w> 627
ê ³</w> 627
ar ran 627
un ra 627
al can 627
ta ke 627
ru by</w> 627
bu en</w> 627
min d 627
Fa de</w> 627
Br and</w> 627
cl inging</w> 627
nar a</w> 627
a ko</w> 626
ä r 626
ho lly</w> 626
ra da</w> 626
ch Ã©</w> 626
ing u 626
con fron 626
pu mp 626
gen e_ 626
gol d 626
tran qui 626
bail ando</w> 626
nine teen</w> 626
freest yle</w> 626
A my</w> 625
la ho 625
ne e</w> 625
le wis</w> 625
br y 625
Ta ken</w> 625
wea k 625
spo il</w> 625
ku sh</w> 625
musi ca</w> 625
clar o</w> 625
Stri ke</w> 625
ada m_ 625
drau f</w> 625
v é</w> 624
w rists</w> 624
C upid</w> 624
R on 624
ba ts</w> 624
ne i 624
dea lin</w> 624
mar k_ 624
cr is</w> 624
over due</w> 624
resta ur 624
N or</w> 623
N ee 623
ri sen</w> 623
do ctors</w> 623
pa sito</w> 623
sh ville</w> 623
fi ero</w> 623
ste en</w> 623
La ter</w> 623
ben ded</w> 623
Gi vin</w> 623
cau tion</w> 623
rif le</w> 623
g re</w> 622
Ð µ 622
ho llywood</w> 622
me ga</w> 622
le s 622
mu g</w> 622
cha ra 622
An ti 622
Fa ut</w> 622
Po i 622
Who ever</w> 622
Qui et</w> 622
Moon light</w> 622
wirk lich</w> 622
i as</w> 621
b ster</w> 621
G lock</w> 621
on e_ 621
st oo 621
ri chard</w> 621
po is</w> 621
con gre 621
ten se</w> 621
cho pper</w> 621
St un 621
bar n</w> 621
Bu ck</w> 621
impor te</w> 621
Beau ty</w> 621
WH EN</w> 621
melan cho 621
k st</w> 620
k ir 620
b iting</w> 620
O ' 620
A K</w> 620
yo re</w> 620
or ay</w> 620
la va</w> 620
ss or</w> 620
contro lled</w> 620
sy l 620
Dra g</w> 620
shu ffle</w> 620
Blin ded</w> 620
_har ris</w> 620
B ul 619
2 3</w> 619
an ders</w> 619
pa pi</w> 619
cra cy</w> 619
min t</w> 619
den te</w> 619
mur dered</w> 619
cau sing</w> 619
mani ac</w> 619
misbe havin</w> 619
g len</w> 618
R um</w> 618
li te</w> 618
ba you</w> 618
da s_ 618
de on</w> 618
hi re</w> 618
hi bit 618
fu cker</w> 618
pi ra 618
tra y</w> 618
sur ed</w> 618
ber ries</w> 618
cur rent</w> 618
j' en</w> 618
pier do</w> 618
Ãª me</w> 618
base ball</w> 618
voy age</w> 618
D ry</w> 617
ã © 617
un lock</w> 617
co ats</w> 617
Ma ch 617
sk s</w> 617
dra s</w> 617
cree k</w> 617
desp ite</w> 617
sug gest</w> 617
conna is</w> 617
S pace</w> 616
p ins</w> 616
l ento</w> 616
in spire</w> 616
un broken</w> 616
en - 616
di ck 616
cu anto</w> 616
dro it</w> 616
can non</w> 616
is sues</w> 616
tit le</w> 616
a tar 615
S ir</w> 615
d ele 615
d ura</w> 615
no sed</w> 615
ta _ 615
lu mi 615
har bor</w> 615
den k</w> 615
oc cur 615
desper ately</w> 615
cea sed</w> 615
tear drop</w> 615
go- round</w> 615
hypo cr 615
Spen ding</w> 615
belie fs</w> 615
F RO 614
e gg</w> 614
G uru</w> 614
in tment</w> 614
co l</w> 614
di vor 614
so ak</w> 614
fa bu 614
mo lly</w> 614
su ckin</w> 614
na p</w> 614
Ch anging</w> 614
La - 614
rain in</w> 614
Pre ten 614
list ens</w> 614
boy z</w> 614
enter ed</w> 614
Tel lin</w> 614
ful ness</w> 614
sigh ing</w> 614
felici dad</w> 614
reminisc ing</w> 614
z an</w> 613
J ai</w> 613
hea led</w> 613
na mor 613
Wa ter 613
col dest</w> 613
uni form</w> 613
reme mbers</w> 613
desc end</w> 613
dec line</w> 613
cual quier</w> 613
a mbi 612
s 'est</w> 612
f ter</w> 612
wa il</w> 612
ba mb 612
to t</w> 612
ki m</w> 612
high s</w> 612
Hi mmel</w> 612
air plane</w> 612
in fa 611
mo ore</w> 611
sh ir 611
bu b 611
chi lled</w> 611
cru mbling</w> 611
ben ch</w> 611
des nu 611
photogra phs</w> 611
Pic tures</w> 611
Moun tain</w> 611
brilli ant</w> 611
er ie</w> 610
di je</w> 610
wi red</w> 610
con fuse</w> 610
bi do</w> 610
es que 610
u o 609
S ó</w> 609
s ounded</w> 609
y up</w> 609
ro tting</w> 609
ma ssa 609
da ke</w> 609
vi ously</w> 609
ge m</w> 609
Li ck</w> 609
ff i</w> 609
pri mera</w> 609
ke ts</w> 609
of ficial</w> 609
quer erte</w> 609
Ã¶ n 609
Bri dge</w> 609
human s</w> 609
eigh ty</w> 609
tech no 609
wastel and</w> 609
K ong</w> 608
D ur 608
1 4</w> 608
ma ttered</w> 608
ch s</w> 608
vi va</w> 608
sho cked</w> 608
hel l 608
sen to</w> 608
fla gs</w> 608
cur l</w> 608
bal an 608
ly n 608
dece it</w> 608
Bar bara</w> 608
NO T</w> 608
snow man</w> 608
la-la- la</w> 608
sad dest</w> 608
F allen</w> 607
b woy</w> 607
J esse</w> 607
I F</w> 607
fa zer</w> 607
sp re 607
sp itting</w> 607
gg i</w> 607
mel ts</w> 607
rai ment</w> 607
coo ked</w> 607
opp osite</w> 607
Pur ple</w> 607
indivi du 607
k a- 606
n ung</w> 606
g ons</w> 606
na ked</w> 606
con qui 606
pi er</w> 606
mon keys</w> 606
Ba ss</w> 606
Pu shing</w> 606
wea ker</w> 606
Ge sicht</w> 606
twi r 606
poi soned</w> 606
sie me</w> 606
bulle t 606
phan ts</w> 606
remin ded</w> 606
A N</w> 605
R - 605
ho ch</w> 605
ba u 605
si ones</w> 605
pi st 605
Co ke</w> 605
mm - 605
Do c</w> 605
stu b 605
twi sting</w> 605
sla ck</w> 605
ob scene</w> 605
schö n</w> 605
a th 604
S ongs</w> 604
e di 604
K on 604
Q u</w> 604
ba si 604
spar kling</w> 604
thi cker</w> 604
Ste ve</w> 604
cry stal 604
goo ds</w> 604
WI LL</w> 604
p ly</w> 603
M C 603
­ a</w> 603
ti an</w> 603
mo th</w> 603
for ming</w> 603
bu sca</w> 603
sha ken</w> 603
sto ve</w> 603
ff _ 603
bl end</w> 603
dev ant</w> 603
Au ch</w> 603
do- do- 603
brigh ten</w> 603
Up town</w> 603
Senti mental</w> 603
a ho 602
a ños</w> 602
f ts</w> 602
in tel 602
an n</w> 602
di as</w> 602
di zer</w> 602
me _ 602
mi sses</w> 602
fi ghters</w> 602
ver ge 602
par is</w> 602
sel dom</w> 602
Bo y 602
stri ctly</w> 602
Ä± n</w> 602
gang stas</w> 602
Sur r 602
ã  602
o tros</w> 601
pe li 601
ac es</w> 601
lon don</w> 601
cho ses</w> 601
mer ely</w> 601
Qui siera</w> 601
moon shine</w> 601
respon si 601
Men schen</w> 601
philoso phy</w> 601
oxy gen</w> 601
F a</w> 600
a qu</w> 600
n ella</w> 600
br es</w> 600
gra pev 600
St yle</w> 600
De ci 600
cree ps</w> 600
vuel to</w> 600
conta gious</w> 600
villa in</w> 600
desig ner</w> 600
k am</w> 599
C our 599
in ' 599
li mbo</w> 599
ti meless</w> 599
re eling</w> 599
el l 599
na ce</w> 599
pro ved</w> 599
Qu ero</w> 599
fla ming</w> 599
dra wers</w> 599
ig a</w> 599
night time</w> 599
mour ning</w> 599
GO T</w> 599
a f</w> 598
a de 598
a gar 598
d . 598
M it 598
it ate</w> 598
fa tto</w> 598
tu b</w> 598
ex posed</w> 598
du h</w> 598
flo p</w> 598
Wa ve</w> 598
Ex actly</w> 598
Man hattan</w> 598
new _ 598
door step</w> 598
poin ting</w> 598
segur o</w> 598
eddy_ arnold</w> 598
a id</w> 597
G ree 597
un ter</w> 597
or _ 597
some things</w> 597
na cht</w> 597
pr end</w> 597
stu mbled</w> 597
Ja pan</w> 597
tin o</w> 597
cel ls</w> 597
vin '</w> 597
respe c 597
ì ´ 597
jam min</w> 597
a gen 596
p eeps</w> 596
D er 596
D el 596
Î ¹</w> 596
or ity</w> 596
sh er 596
for evermore</w> 596
Li ps</w> 596
ja ws</w> 596
Hur t</w> 596
alg una</w> 596
T anto</w> 595
an no</w> 595
Th ir 595
ni co</w> 595
sh eriff</w> 595
hear in</w> 595
est án</w> 595
cu ento</w> 595
cha rac 595
Re memb 595
over load</w> 595
believ able</w> 595
Afri can</w> 595
grin ding</w> 595
gle ich</w> 595
c ci 594
m ity</w> 594
B ran 594
ar e- 594
en tro</w> 594
si mi 594
sch war 594
Bu ilt</w> 594
tan o</w> 594
sse l</w> 594
enten ds</w> 594
dem ned</w> 594
f á 593
B lan 593
O oooh</w> 593
ri cor 593
ra u 593
be e_ 593
co co 593
Sa tis 593
under water</w> 593
AN T</w> 593
Rela x</w> 593
saf ely</w> 593
h ren 592
_ of_ 592
A S</w> 592
I m 592
fa ti 592
mo ons</w> 592
he li 592
Hal loween</w> 592
stin _ 592
Spea king</w> 592
bee_ gees</w> 592
k or 591
o scu 591
y y</w> 591
Y i 591
c re</w> 591
3 0 591
Be sides</w> 591
ter ing</w> 591
hu ggin</w> 591
sub ject</w> 591
colle ction</w> 591
19 7 591
e specially</w> 590
d r</w> 590
b our</w> 590
L le 590
ha br 590
pa ssion 590
sing ers</w> 590
mou fla 590
sma shed</w> 590
inten ant</w> 590
john ny_ 590
defin ition</w> 590
hom mes</w> 590
a e</w> 589
c ómo</w> 589
K ur 589
4 th</w> 589
th re 589
go at</w> 589
co con 589
de fy</w> 589
sp ells</w> 589
Ju sti 589
fro g</w> 589
hn en</w> 589
Fla sh</w> 589
chris_ brown</w> 589
strugg ling</w> 589
glori a_ 589
predic table</w> 589
v anish</w> 588
H it 588
z y 588
z ando</w> 588
T rea 588
in qui 588
ea s</w> 588
ar m 588
ti k</w> 588
pa cking</w> 588
wor ms</w> 588
sta cked</w> 588
cor d</w> 588
pr ès</w> 588
vol un 588
Ex plo 588
s- moi</w> 588
bewil dered</w> 588
i ced</w> 587
m ío</w> 587
G rea 587
E m 587
se hn</w> 587
so ck</w> 587
ne gra</w> 587
pa se</w> 587
va st</w> 587
ten gas</w> 587
spe cta 587
dis gui 587
spi lled</w> 587
ya p</w> 587
sche ming</w> 587
ef fort</w> 587
critici ze</w> 587
o ther 586
_ ho 586
ä r</w> 586
G E</w> 586
ho ttest</w> 586
co inci 586
si l</w> 586
we st 586
sha ped</w> 586
br ink</w> 586
fin o</w> 586
cur ren 586
Rea lity</w> 586
uni versal</w> 586
tea chers</w> 586
gui ded</w> 586
Au tumn</w> 586
I- I</w> 586
mea dows</w> 586
Coun ty</w> 586
ve- a</w> 586
ignor ant</w> 586
bear d</w> 586
a fri 585
v aga 585
p hat</w> 585
n é 585
l ings</w> 585
g ge 585
J et</w> 585
ro bot</w> 585
ri dad</w> 585
ra ged</w> 585
wi dow</w> 585
mi lle</w> 585
su gar 585
gg ling</w> 585
[...]
